node {
  name: "global_step/Initializer/zeros"
  op: "Const"
  attr {
    key: "_class"
    value {
      list {
        s: "loc:@global_step"
      }
    }
  }
  attr {
    key: "_output_shapes"
    value {
      list {
        shape {
        }
      }
    }
  }
  attr {
    key: "dtype"
    value {
      type: DT_INT64
    }
  }
  attr {
    key: "value"
    value {
      tensor {
        dtype: DT_INT64
        tensor_shape {
        }
        int64_val: 0
      }
    }
  }
}
node {
  name: "global_step"
  op: "VariableV2"
  attr {
    key: "_class"
    value {
      list {
        s: "loc:@global_step"
      }
    }
  }
  attr {
    key: "_output_shapes"
    value {
      list {
        shape {
        }
      }
    }
  }
  attr {
    key: "container"
    value {
      s: ""
    }
  }
  attr {
    key: "dtype"
    value {
      type: DT_INT64
    }
  }
  attr {
    key: "shape"
    value {
      shape {
      }
    }
  }
  attr {
    key: "shared_name"
    value {
      s: ""
    }
  }
}
node {
  name: "global_step/Assign"
  op: "Assign"
  input: "global_step"
  input: "global_step/Initializer/zeros"
  attr {
    key: "T"
    value {
      type: DT_INT64
    }
  }
  attr {
    key: "_class"
    value {
      list {
        s: "loc:@global_step"
      }
    }
  }
  attr {
    key: "_output_shapes"
    value {
      list {
        shape {
        }
      }
    }
  }
  attr {
    key: "use_locking"
    value {
      b: true
    }
  }
  attr {
    key: "validate_shape"
    value {
      b: true
    }
  }
}
node {
  name: "global_step/read"
  op: "Identity"
  input: "global_step"
  attr {
    key: "T"
    value {
      type: DT_INT64
    }
  }
  attr {
    key: "_class"
    value {
      list {
        s: "loc:@global_step"
      }
    }
  }
  attr {
    key: "_output_shapes"
    value {
      list {
        shape {
        }
      }
    }
  }
}
node {
  name: "Const"
  op: "Const"
  attr {
    key: "_output_shapes"
    value {
      list {
        shape {
          dim {
            size: 8000
          }
        }
      }
    }
  }
  attr {
    key: "dtype"
    value {
      type: DT_FLOAT
    }
  }
  attr {
    key: "value"
    value {
      tensor {
        dtype: DT_FLOAT
        tensor_shape {
          dim {
            size: 8000
          }
        }
        tensor_content: "\245\365\223\302)\357\223\302$\356\223\302Z\357\223\302\026\375\223\302\352\376\223\302w\003\224\302\361\347\223\302\272\367\223\302\273\271\223\302\336\364\223\302\200\355\223\302\337\376\223\3025\372\223\302\315\356\223\302\342\345\223\302<\367\223\302e\223\223\302\315\362\223\302#\362\223\302\374\357\223\3022\367\223\302\226\360\223\302\246\374\223\302r\004\224\302\275\365\223\302]\273\223\302\306\372\223\302\301\374\223\302\256\367\223\302T\372\223\302\264\362\223\302H\373\223\302u\002\224\302\310\373\223\302\013\362\223\302\230\371\223\302\276\364\223\302\377\001\224\302H\347\223\302x\374\223\302\262\372\223\302~\363\223\302\327\372\223\302\316\275\223\302x\373\223\302\326\366\223\302W\361\223\302z\357\223\302\231\353\223\302\326\275\223\302\240\364\223\302O\364\223\302\213\356\223\3022\367\223\302\035\001\224\302H\001\224\302\014\010\224\302)\376\223\302N\362\223\302W\346\223\302h\371\223\302\021\373\223\302\205\356\223\302\275\004\224\302\270\277\223\302n\367\223\302\331\343\223\302\242\351\223\302\325\362\223\302A\364\223\302\376\363\223\302s\001\224\302|\370\223\302\274\371\223\302Z\376\223\302t\220\223\302x\371\223\302\205\371\223\302w\366\223\302\205\371\223\302t\350\223\302X\000\224\302\370\357\223\302\320\353\223\302J\364\223\302\227\331\223\302\324\365\223\302\236\360\223\302\377\371\223\302N\350\223\302\216\350\223\302\356\370\223\302Y\361\223\302;\374\223\302l\361\223\302\000\347\223\302\341\360\223\302\245\003\224\302\231\354\223\302\005\355\223\302\243\367\223\302I\347\223\302\315\364\223\302*\367\223\302\252\364\223\302\322\364\223\302?\364\223\302\021\375\223\302p\366\223\302V\000\224\302\350\353\223\302\335\216\223\302\020\351\223\3024\346\223\302j\335\223\302o\357\223\302\007\374\223\302?\366\223\302\\\364\223\302\340\367\223\3020\354\223\302\335\357\223\302\337\001\224\302\200\370\223\302\327\373\223\302\013\001\224\302\\\371\223\302\306\366\223\302x\367\223\302t\364\223\302\316\360\223\302;\361\223\302\021\366\223\302\207\355\223\302l\365\223\302B\357\223\302\365\000\224\302\013\374\223\302\206\355\223\302\267\000\224\302\215\344\223\302+\367\223\302\346\365\223\302\245\370\223\3026\375\223\302\032\360\223\302\346\360\223\302\315\367\223\3021\375\223\302\003\354\223\302\217\363\223\302L\375\223\302\274\365\223\302\366\373\223\302\336\342\223\302V\373\223\302\361\371\223\302t\360\223\302M\371\223\302-\360\223\302\333\275\223\302/\366\223\302\027\002\224\302#\360\223\302\332\335\223\302d\224\223\302X\366\223\302j\002\224\302\007\363\223\3020\272\223\302\331\366\223\302-\372\223\302\002\362\223\302J\375\223\302\211\367\223\302#\010\224\302c\004\224\302`\357\223\302\213\373\223\302\304\367\223\302V\376\223\302I\003\224\302\027\373\223\302\r\354\223\302\346\351\223\302\254\357\223\302\260\377\223\302\002\001\224\302\231\364\223\302W\007\224\302\242\375\223\302`\001\224\302\t\277\223\302Q\374\223\302\206\000\224\302\256\367\223\302\r\372\223\302_\000\224\302\034\345\223\302\035\377\223\302\311\372\223\302\274\372\223\302\346\371\223\302}\353\223\302\356\345\223\302\263\363\223\302s\371\223\302\214\371\223\302.\357\223\302\364\375\223\302\251\353\223\302\277\375\223\302\323\371\223\302\342\366\223\302\030\001\224\302\216\367\223\302x\003\224\302y\002\224\302\254\005\224\302$\371\223\302\265\365\223\302Q\364\223\302y\366\223\302\313\361\223\302\327\350\223\302\310\377\223\302\014\374\223\302\260\215\223\302\330\371\223\302&\367\223\3024\367\223\302\005\373\223\302<\377\223\3027\370\223\302:\375\223\302\344\365\223\302\232\337\223\302e\372\223\302G\361\223\302\003\366\223\302D\352\223\302\304\361\223\302&\367\223\302\264\215\223\302}\357\223\302\207\365\223\302\263\375\223\302p\351\223\302\217\371\223\302X\376\223\302\240\370\223\302\224\375\223\302y\370\223\302K\376\223\302\332\370\223\302\337\344\223\302S\002\224\302\261\347\223\302\270\376\223\302\337\367\223\302\343\371\223\302f\357\223\302\240\004\224\302D\374\223\302\001\272\223\302\264\361\223\302c\367\223\302:\003\224\302R\001\224\302\274\373\223\302\212\003\224\302\013\375\223\302\346\363\223\302\037\345\223\302\343\357\223\302o\376\223\302B\377\223\302\226\372\223\302\250\366\223\302\003\014\224\302\317\007\224\302+\363\223\3025\367\223\302\321\363\223\302Q\366\223\302E\305\223\302J\220\223\302\310\001\224\302\333\354\223\302\345\351\223\302\226\001\224\302\307\353\223\302\263\362\223\3029\351\223\302~\377\223\302\333\010\224\302*\371\223\302\247\372\223\302\252\003\224\302\"\376\223\302$\362\223\302\242\363\223\302<\354\223\302\177\366\223\302\345\357\223\302\224\371\223\302\205\377\223\302\363\373\223\302\346\365\223\302\252\370\223\302:\346\223\302\"\352\223\302\206\351\223\302\227\354\223\302\343\355\223\302\205\347\223\302\205\353\223\302\314\366\223\302\t\375\223\302\225\375\223\302.\376\223\302Z\366\223\302\212\355\223\3029\371\223\302y\353\223\302V\272\223\302\340\353\223\302\307\347\223\302h\355\223\302h\364\223\302Q\374\223\302r\370\223\302\366\365\223\302\304\371\223\302\352\367\223\302\366\365\223\302\305\002\224\302\033\361\223\302\207\364\223\302\310\347\223\302\301\363\223\302/\372\223\302\037\372\223\302K\372\223\302\260\215\223\302\277\374\223\302\251\371\223\302e\374\223\302@\365\223\302\024\315\223\302\327\000\224\302)\371\223\302s\361\223\302\025\006\224\302\221\352\223\302\366\367\223\302\364\361\223\302U\371\223\302\320\374\223\302Z\224\223\302P\357\223\302+\355\223\302\362\217\223\302_\004\224\302\036\365\223\3023\347\223\302g\351\223\302E\370\223\302?\364\223\302\024\350\223\302\321\367\223\302M\000\224\302]\352\223\302\027\350\223\302\'\372\223\302\356\004\224\302)\225\223\302\032\360\223\302\276\351\223\302V\003\224\3026\272\223\302\353\363\223\302\343\275\223\302\017\364\223\302\277\367\223\302\021\367\223\302\'\373\223\302\201\372\223\302\273\000\224\302D\350\223\302\\\353\223\302\372\365\223\302\224\372\223\302\253\367\223\302\n\374\223\302I\364\223\302\300\355\223\302f\360\223\302\255\357\223\302\347\343\223\302\315\366\223\302\255\376\223\302v\363\223\302\371\355\223\302\035\006\224\302\370\373\223\302-\272\223\302v\371\223\302\345\001\224\302\217\003\224\302S\353\223\302\235\371\223\302\375\372\223\302\273\365\223\302\'\365\223\302a\364\223\302o\220\223\302W\364\223\302k\354\223\302v\366\223\302@\371\223\302w\220\223\302\225\370\223\302D\367\223\302\365\346\223\302\205\364\223\302\263\004\224\302\325\366\223\302\334\367\223\302\344\003\224\302\226\356\223\302\373\362\223\302\347\350\223\302\202\372\223\302\260\363\223\302F\373\223\302\265\350\223\302M\366\223\302\266\372\223\302\014\370\223\302|\366\223\302`\363\223\302\006\362\223\302\360\001\224\302K\357\223\302\253\345\223\302\216\371\223\3023\377\223\302=\000\224\302\214\360\223\302@\355\223\3028\273\223\302\321\377\223\302\326\366\223\302\250\365\223\302\345\351\223\302\224\377\223\302\256\343\223\302\375\371\223\302\222\373\223\302\217\362\223\302\004\373\223\302\345\326\223\302\'\322\223\302\245\372\223\302+\357\223\302\031\361\223\302\323\360\223\302\003\372\223\302\231\343\223\302\356\001\224\302X\007\224\302\257\000\224\302\275\362\223\302,\360\223\302{\374\223\302\'\361\223\302\375\364\223\302\227\351\223\302\303\374\223\302\"\375\223\302\241\367\223\302+\352\223\302\347\372\223\302}\354\223\302\273\375\223\302\262\345\223\302\\\367\223\3027\371\223\302 \371\223\302h\351\223\302\023\374\223\302\001\352\223\302\267\361\223\302=\007\224\302\350\351\223\302\375\001\224\302\256\361\223\302\r\361\223\302\300\370\223\302\263\371\223\302|\372\223\302\036\351\223\302s\370\223\302\273\224\223\302\253\337\223\3024\373\223\302\377\371\223\302\223\351\223\302$\372\223\302;\361\223\302\035\362\223\302\266\372\223\302\375\361\223\302\201\370\223\302>\377\223\302\006\004\224\302>\361\223\302x\367\223\302\256\352\223\302\370\346\223\302\233\363\223\302}\360\223\302L\000\224\302\026\375\223\302X\353\223\3020\375\223\302\321\364\223\302\272\360\223\302j\372\223\302l\362\223\302U\366\223\302G\364\223\302~\376\223\302\030\371\223\302\273\371\223\302\220\370\223\3024\357\223\302\376\357\223\302b\373\223\302n\371\223\302&\354\223\302\016\362\223\302E\367\223\302\345\377\223\302w\361\223\302\247\006\224\302\'\372\223\302\204\354\223\302\364\004\224\302\341\377\223\302,\375\223\302\275\224\223\302\350\006\224\302%\352\223\302]\220\223\302\242\366\223\302\\\367\223\302*\361\223\302#\370\223\302\263\366\223\302\200\366\223\302\233\373\223\302\312\004\224\302\203\375\223\302|\356\223\302#\362\223\3021\365\223\302\217\000\224\302S\362\223\302\355\374\223\302\251\357\223\302\362\364\223\302g\363\223\302\324\362\223\302\272\366\223\302\025\372\223\302\266\363\223\302\332\275\223\302\033\346\223\302\335\360\223\302`\374\223\302e\371\223\302U\367\223\302f\357\223\302\271\373\223\302`\220\223\302\340\345\223\302\236\372\223\3026\362\223\302\017\363\223\302\375\362\223\302\216\366\223\302\001\366\223\302W\004\224\302r\344\223\302\243\361\223\302\031\370\223\302\353\364\223\302-\002\224\302\016\003\224\302F\350\223\3022\001\224\302\324\271\223\302\020\373\223\302\035\361\223\302\007\366\223\302!\001\224\302\257\375\223\302\220\352\223\302b\375\223\302~\370\223\302\323\365\223\302!\373\223\302\r\361\223\302\336\364\223\302\200\354\223\302\234\371\223\302\271\003\224\302\\\375\223\302q\351\223\302\214\346\223\302\205\373\223\302\234\367\223\302\321\357\223\302N\374\223\302\021\371\223\302\254\371\223\302\245\001\224\302\374\364\223\302\014\367\223\302\033\355\223\302W\312\223\302\363\365\223\302\022\377\223\302\247\361\223\302\270\365\223\302\002\010\224\302\035\365\223\302\353\363\223\302\272\373\223\302\342\372\223\302\257\374\223\302\331\375\223\302\021\371\223\302\225\324\223\302\271\374\223\302\373\361\223\302k\373\223\302>\375\223\302\210\367\223\302\026\367\223\302;\367\223\302/\371\223\3023\010\224\302\177\373\223\302?\372\223\302\251\362\223\302\246\377\223\302k\000\224\302k\377\223\302\020\351\223\302l\376\223\302\203\350\223\302\260\215\223\302p\346\223\302\356\364\223\302\216\364\223\302\020\357\223\302\251\367\223\302\031\001\224\302\263\373\223\302\201\374\223\302m\350\223\302\361\374\223\302\014\351\223\302\273\366\223\3029\353\223\302\376\365\223\302\205\374\223\302e\346\223\302\364\350\223\302\216\372\223\3029\366\223\302%\352\223\302\320\366\223\302\213\341\223\302\271\366\223\302\036\363\223\302\221\000\224\302`\373\223\302\206\354\223\302k\366\223\302\351\366\223\302\323\364\223\302\304\366\223\302\225\376\223\302=\367\223\302\321\364\223\302\020\350\223\302I\351\223\302\364\366\223\302X\361\223\302A\357\223\302 \373\223\302\277\375\223\3020\354\223\302_\354\223\302\341\357\223\302\177\370\223\302\272\371\223\302$\377\223\302\204\364\223\302\n\372\223\302\335\277\223\302\331\347\223\302s\006\224\302\314\352\223\302y\357\223\302\257\364\223\302\256\374\223\302\327\362\223\302\363\365\223\302\260\363\223\302\307\356\223\302\n\354\223\302w\365\223\302\256\001\224\302\211\373\223\302\014\366\223\302\240\350\223\302(\351\223\302\025\353\223\302\324\355\223\302\203\371\223\302m\364\223\302\372\377\223\302R\372\223\302e\372\223\302\232\343\223\302\344\366\223\302\207\366\223\302\332\373\223\302\000\356\223\302\265\215\223\302:\364\223\302\222\365\223\302\324\352\223\302t\373\223\302\222\377\223\302v\360\223\302\272\353\223\302Z\361\223\302\257\366\223\302\014\371\223\302\010\347\223\302\025\372\223\3024\002\224\302\036\365\223\302+\364\223\302\233\356\223\302\244\345\223\302\372\370\223\302\017\365\223\302K\004\224\302U\351\223\302\266\350\223\3023\371\223\302x\004\224\302\363\366\223\302\317\361\223\302\252\345\223\302w\353\223\302\250\370\223\3021\373\223\302\222\005\224\302p\356\223\302p\372\223\302Y\367\223\302s\343\223\302\200\357\223\302\332\346\223\302\021\362\223\302\341\376\223\302(\354\223\302O\352\223\302\324\347\223\302\262\353\223\302\204\350\223\302\n\004\224\302\337\365\223\302\300\363\223\302)\002\224\302/\356\223\302\251\372\223\302\005\002\224\302\\\373\223\302n\350\223\302\314\376\223\302\223\372\223\302\207\000\224\302\002\003\224\302\024\346\223\302D\363\223\302\212\363\223\302\317\364\223\302\035\002\224\302\016\365\223\302\n\361\223\302\357\373\223\302\n\221\223\3029\001\224\302\026\367\223\3025\370\223\302\014\003\224\302\014\371\223\302\300\277\223\302\216\376\223\3021\371\223\302\205\002\224\302\325\372\223\302\360\374\223\302\364\346\223\302\211\365\223\302\226\367\223\302\331\003\224\302\251\372\223\302L\372\223\302\000\371\223\302\301\371\223\302p\346\223\302\306\354\223\302A\372\223\302\367\366\223\302\317\363\223\302\226\352\223\302\246\360\223\302V\374\223\302\303\350\223\302\326\360\223\302\027\371\223\302y\373\223\302\335\363\223\302\n\347\223\302\313\357\223\302\341\356\223\302w\355\223\302\216\376\223\302\035\272\223\302\267\356\223\302J\357\223\302\325\365\223\302W\373\223\302\327\002\224\302\353\346\223\302\364\367\223\302\375\371\223\302\226\002\224\302\035\366\223\302\204\366\223\302\300\215\223\302<\272\223\302\256\355\223\302\314\372\223\302D\002\224\302d\352\223\302\325\364\223\302\243\357\223\302t\374\223\302\201\360\223\302\342\357\223\302\365\366\223\302\354\367\223\302\253\376\223\302\270\352\223\302\327\367\223\302C\365\223\302]\000\224\302\204\360\223\302N\371\223\302\023\360\223\3026\367\223\302\341\362\223\302\331\360\223\302\300\375\223\302\353\003\224\302\013\273\223\302p\370\223\302\212\375\223\302X\007\224\302\302\001\224\302C\362\223\302\344\366\223\302O\367\223\302\202\000\224\3028\361\223\302B\345\223\302\206\374\223\302\025\374\223\302c\356\223\302S\371\223\302\213\374\223\302\353\365\223\302@\356\223\3027\366\223\302\234\365\223\302\014\354\223\302\035\002\224\302g\375\223\302\377\366\223\302T\373\223\302|\375\223\302\312\366\223\302~\353\223\302\240\364\223\302^\220\223\302\212\352\223\302\001\372\223\302\270\377\223\3027\352\223\302\237\375\223\302;\364\223\302F\365\223\302p\000\224\302\034\365\223\3024\351\223\302\262\347\223\302w\366\223\302\020\003\224\302K\002\224\302\016\361\223\302\230\370\223\302!\356\223\302\314\357\223\302\232\363\223\302a\350\223\3025\370\223\302\231\370\223\302t\372\223\302\265\354\223\302\360\373\223\302\032\370\223\302\232\346\223\302\277\364\223\302!\377\223\302\201\367\223\302\306\375\223\302\226\365\223\3021\367\223\302\225\352\223\302i\360\223\302\375\364\223\302\244\371\223\302\350\276\223\3025\365\223\302\n\366\223\302\277\224\223\302\016\372\223\302+\356\223\302-\366\223\302\321\360\223\302>\375\223\302\203\362\223\302l\371\223\302F\371\223\302j\365\223\302\352\367\223\302P\370\223\302\001\372\223\302\316\354\223\3022\334\223\302\356\372\223\302P\221\223\302!\371\223\302t\361\223\302\300\365\223\302\345\356\223\302\303\353\223\302q\004\224\302\222\352\223\302\024\351\223\302{\364\223\302\315\366\223\302\036\357\223\302\233\352\223\302~\002\224\302\204\370\223\302\003\376\223\302\224\353\223\302;\366\223\302\204\364\223\302\036\352\223\302\234\002\224\302Z\002\224\302\264\002\224\302\240\346\223\302,\005\224\302\220\356\223\3024\361\223\302C\375\223\302g\355\223\302\340\365\223\302Y\375\223\302d\355\223\302]\366\223\302\225\364\223\302\217\007\224\302\037\373\223\302\373\374\223\3028\375\223\302I\372\223\302\266\215\223\302\206\357\223\302\032\370\223\302\270\367\223\302\016\362\223\302\252\372\223\302-\364\223\302\311\350\223\3029\354\223\3021\363\223\3027\373\223\302<\355\223\302\022\375\223\302p\356\223\302\237\365\223\302\363\365\223\302\313\361\223\302M\365\223\302\370\370\223\302(\360\223\302F\372\223\302\320\347\223\302\037\356\223\302\224\364\223\3024\377\223\302\300\003\224\302\037\365\223\302\257\373\223\302\337\373\223\302[\365\223\302\367\363\223\302\215\366\223\302\257\350\223\302\256\371\223\302\031\273\223\302\202\350\223\302m\373\223\302Q\364\223\302\203\366\223\302-\001\224\302\027\346\223\302\242\361\223\302\207\362\223\302f\355\223\302\022\377\223\302\004\357\223\3025\371\223\302\252\373\223\3021\364\223\302\002\364\223\302\002\367\223\302\377\374\223\302\353\271\223\302\313\000\224\302\376\352\223\302P\375\223\302i\365\223\302\'\370\223\302d\360\223\302\313\353\223\302\200\373\223\302Q\372\223\302_\373\223\302\257\345\223\302\247\372\223\302\326\356\223\302\002\002\224\302n\364\223\302[\362\223\302\335\355\223\302\341\371\223\302\315\371\223\302a\366\223\302\001\361\223\302\337\357\223\302\241\373\223\302.\365\223\302\362\360\223\302E\364\223\302\271\373\223\302$\346\223\302N\367\223\302O\376\223\302(\364\223\302\246\367\223\302#\351\223\302F\364\223\302\352\276\223\302a\370\223\302\332\007\224\302{\364\223\302v\375\223\302\260\215\223\302z\367\223\302\334\372\223\302\320\002\224\302\004\352\223\302I\367\223\302\024\373\223\302s\356\223\302\035\373\223\302\305\377\223\302\201\374\223\302B\350\223\302{\001\224\302S\007\224\302\372\333\223\302B\352\223\302\237\375\223\302\224\357\223\302\273\000\224\302\371\374\223\3022\347\223\302\347\354\223\302;\372\223\302\026\365\223\302$\354\223\302\310\354\223\302\275\362\223\302\350\347\223\302F\354\223\302?\363\223\302\234\373\223\302\252\001\224\302Y\005\224\302\256\370\223\302\234\366\223\302\001\005\224\302s\371\223\302\335\373\223\302\013\356\223\302L\344\223\3021\364\223\302X\371\223\302\224\375\223\302\213\372\223\302I\002\224\302\321\370\223\302b\371\223\302\305\002\224\302\332\350\223\302X\370\223\302\237\373\223\302)\007\224\302\305\346\223\302\344\374\223\302\027\356\223\302\037\005\224\302\235\372\223\302\r\374\223\302:\373\223\302\273\372\223\302\014\352\223\302X\362\223\302\014\356\223\302\346\366\223\302-\366\223\302F\376\223\302\216\367\223\302\237\365\223\302\320\374\223\302q\221\223\302~\361\223\302\220\354\223\302\352\347\223\302\357\363\223\302\366\002\224\302\361\367\223\302\213\365\223\302\025\357\223\302\376\002\224\302\270\367\223\302|\220\223\302\300\366\223\302D\344\223\302\206\370\223\3021\371\223\302+\372\223\302\241\366\223\302z\367\223\302\235\366\223\302\376\373\223\302\233\377\223\302z\366\223\302k\367\223\302y\367\223\302\355\371\223\302\030\363\223\302\005\367\223\302\216\346\223\302\265\370\223\302U\374\223\302j\351\223\302>\353\223\302h\373\223\302\n\353\223\302\223\362\223\302\303\372\223\302\335\351\223\302\276\365\223\302\224\367\223\302i\375\223\302>\004\224\302\331\276\223\302\010\366\223\302:\002\224\302\257\001\224\302\252\372\223\302W\370\223\302\356\374\223\3026\350\223\302\364\363\223\302}\364\223\302\330\360\223\302\334\364\223\302\345\315\223\302\310\364\223\302\016\365\223\302\340\354\223\302\375\362\223\302\377\377\223\302\033\362\223\302n\360\223\302\216\352\223\302d\000\224\302\300\375\223\302\331\350\223\302\302\356\223\302\000\375\223\302\013\365\223\302*\003\224\302\337\372\223\3029\002\224\302\007\370\223\302\275\361\223\302\317\375\223\302c\361\223\3025\367\223\302\252\375\223\302P\004\224\3029\345\223\302\354\346\223\302\256\347\223\302E\353\223\302\265\002\224\302^\350\223\302\366\345\223\302\224\367\223\302[\364\223\302+\372\223\302 \343\223\302f\371\223\302l\345\223\302\243\352\223\302\310\345\223\302K\355\223\302z\374\223\302\000\361\223\302\264\276\223\302\206\377\223\302\'\365\223\302\201\366\223\302\276\374\223\302X\357\223\302\352\366\223\302\214\376\223\302\357\377\223\302\310\373\223\302\016\366\223\302n\005\224\302]\357\223\302(\377\223\302q\353\223\302z\366\223\302\036\365\223\302\233\003\224\302\201\362\223\302\004\365\223\302\350\376\223\302\027\372\223\302\322\371\223\302\270\372\223\302\230\347\223\302t\371\223\302\223\376\223\302\213\370\223\302[\350\223\302\333\006\224\302\375\374\223\302\220\225\223\302K\356\223\302d\272\223\302\357\365\223\302\"\373\223\302\227\376\223\302\024\002\224\302\235\372\223\302\252\370\223\302k\367\223\302O\377\223\302\317\376\223\3024\364\223\302\306\350\223\302\005\001\224\302q\375\223\302&\364\223\302\273\372\223\302\366\365\223\302\003\373\223\302\256\002\224\302\375\363\223\302\367\003\224\302\367\347\223\302U\366\223\302\367\376\223\302{\366\223\302\256\367\223\302\332\373\223\302R\376\223\302l\224\223\302\305\357\223\302X\370\223\302\247\355\223\302\026\365\223\302\355\374\223\302\'\370\223\302\037\363\223\302\023\364\223\302\367\000\224\302\337\376\223\302K\344\223\302\004\355\223\302e\363\223\302\\\371\223\302\177\364\223\302s\366\223\302\311\365\223\302\006\373\223\302;\356\223\302\254\356\223\302\374\357\223\302\033\363\223\302\002\371\223\302J\373\223\302\227\363\223\302\220\357\223\302\025\002\224\302\024\005\224\302\032\364\223\302\203\356\223\302j\355\223\302\021\355\223\302l\273\223\302h\372\223\302\353\363\223\3029\370\223\302\273\357\223\302\317\360\223\302\240\002\224\302;\364\223\302A\365\223\302O\002\224\302\274\220\223\302\330\355\223\302v\353\223\302\376\366\223\302\363\365\223\302\371\354\223\302\213\347\223\302\354\366\223\302\256\371\223\302G\370\223\302\010\351\223\302\373\376\223\302Q\375\223\302T\371\223\302\264\371\223\302\236\377\223\302d\364\223\302V\371\223\302\376\006\224\302\231\373\223\302o\351\223\302\343\005\224\3026\375\223\302\025\003\224\302c\371\223\302\\\356\223\302\202\350\223\302&\354\223\302\024\363\223\302\202\220\223\302\235\360\223\302\335\000\224\302%\374\223\302\023\362\223\302\005\376\223\302\234\377\223\302\350\362\223\302g\367\223\302\230\365\223\302\321\353\223\302\326\364\223\302\223\363\223\302\365\353\223\302\351\005\224\302\265\003\224\302:\373\223\302\220\363\223\302\331\362\223\302B\345\223\302\\\351\223\302\263\373\223\302V\272\223\302^\347\223\302\336\000\224\302\247\361\223\302\377\002\224\302K\367\223\302d\373\223\302\010\272\223\302\276\350\223\302\333\004\224\302\027\367\223\302>\347\223\302\004\216\223\302\354\000\224\302\227\366\223\302\274\363\223\302\236\001\224\302\227\371\223\302\265\361\223\302\202\001\224\302\036\004\224\302\321\362\223\302:\373\223\302\267\372\223\302\377\371\223\302\200\351\223\302B\352\223\302q\371\223\302x\370\223\302\004\371\223\302\314\002\224\302\226\351\223\302\210\366\223\302+\373\223\302q\350\223\302\030\004\224\302a\365\223\302=\370\223\302\371\366\223\302!\344\223\302\032\367\223\302\213\352\223\302>\362\223\302\r\374\223\302&\364\223\302!\000\224\302\273\372\223\302\304\333\223\302\312\370\223\302\343\372\223\302\233\363\223\302J\361\223\302\220\350\223\302c\000\224\302D\363\223\302\215\346\223\302\231\360\223\302\255\354\223\302=\351\223\302\327\346\223\302t\360\223\302\261\370\223\302\241\360\223\302\207\376\223\302\255\362\223\302%\374\223\302\357\365\223\302\370\371\223\3027\002\224\302\211\362\223\302\316\360\223\302<\366\223\302\261\354\223\302\037\373\223\302\353\371\223\302\321\353\223\302\375\360\223\302\223\330\223\302g\374\223\302\345\353\223\302O\374\223\302\367\366\223\302\276\363\223\302m\350\223\302\266\367\223\302\306\366\223\302\232\370\223\302\227\353\223\302B\356\223\302\027\373\223\302\357\372\223\302\034\361\223\302C\374\223\302r\376\223\302g\367\223\302|\353\223\302\327\371\223\302\260\367\223\302\336\356\223\302\276\357\223\3029\002\224\302\352\005\224\302\342\375\223\302c\361\223\302\233\363\223\302y\374\223\302\334\000\224\302\337\000\224\302\037\373\223\302\355\351\223\302\034\366\223\302%\362\223\302\213\364\223\302\207\000\224\302U\363\223\302u\372\223\302\304\376\223\302\345\361\223\302\177\365\223\302\213\367\223\302.\363\223\302\244\000\224\302\342\361\223\302\331\343\223\302j\357\223\302\341\355\223\302\363\375\223\302\204\363\223\302\221\371\223\302\022\373\223\302\322\376\223\302\224\374\223\302|\000\224\302\357\367\223\302\220\355\223\302\007\370\223\302\217\372\223\302\"\372\223\302I\000\224\302\035\363\223\302n\375\223\302\201\377\223\302J\375\223\302\010\002\224\302\335\372\223\302w\305\223\302\345\351\223\302\221\374\223\302\234\370\223\302#\372\223\302f\350\223\302\221\361\223\302\373\366\223\302\006\003\224\302k\356\223\302\357\347\223\302j\004\224\302\325\376\223\302`\351\223\302\334\371\223\302\204\355\223\302\246\352\223\302\267\352\223\302\013\000\224\302e\372\223\302\"\376\223\302R\367\223\302\236\000\224\302\262\357\223\302i\367\223\302\205\364\223\302\210\373\223\302\002\004\224\302\330\366\223\302\023\365\223\302)\372\223\302\226\347\223\302\010\367\223\302K\373\223\302\334\352\223\302\336\000\224\3020\350\223\302\342\363\223\302N\344\223\302A\351\223\302\377\347\223\302\030\277\223\302!\010\224\302\365\367\223\302\002\000\224\302K\360\223\302\n\372\223\302\023\372\223\302Z\356\223\302\242\370\223\302\214\224\223\302|\364\223\302a\356\223\302\264\361\223\302<\004\224\302B\224\223\302C\367\223\302O\346\223\302\331\364\223\302\376\361\223\302\270\376\223\302\317\364\223\302/\003\224\302=\001\224\302\242\364\223\302\314\365\223\302\315\370\223\3028\370\223\302\315\345\223\302R\002\224\3026\002\224\302z\365\223\302?\347\223\302w\370\223\302\330\366\223\302\261\365\223\302\213\367\223\302z\354\223\302)\355\223\302\245\372\223\302\216\373\223\302p\362\223\302l\357\223\302\370\372\223\302\226\372\223\302\217\377\223\302\301\352\223\302e\220\223\302\371\276\223\302\266\370\223\302H\373\223\302\\\373\223\302\225\377\223\302\336\367\223\302\r\363\223\302g\356\223\302K\000\224\302\201\363\223\302\021\373\223\302\350\352\223\302$\361\223\302\330\350\223\302\244\003\224\302}\371\223\302\266\347\223\302\270\366\223\302\200\353\223\302\203\357\223\302\010\346\223\302V\273\223\302F\372\223\302\245\373\223\3028\376\223\302\232\002\224\302\020\372\223\302f\342\223\302\264\005\224\302\354\346\223\302 \363\223\302{\346\223\302\344\364\223\302\256\354\223\302\236\352\223\302.\343\223\302\251\357\223\302\022\364\223\302\017\373\223\302\222\376\223\302\273\000\224\302Q\272\223\302\014\346\223\302\006\373\223\302A\222\223\302\"\344\223\302m\356\223\302\327\003\224\3025\354\223\302a\374\223\302\264\361\223\302\373\373\223\302\342\371\223\302&\003\224\302k\377\223\302S\353\223\302\300\006\224\302\221\356\223\302\363\366\223\302T\360\223\302\355\001\224\302\274\371\223\302;\367\223\302\311\354\223\302q\366\223\302k\364\223\302\327\372\223\302\261\344\223\302\225\373\223\302\317\364\223\302\214\376\223\302\312\347\223\302c\353\223\302S\371\223\302(\004\224\302\360\346\223\302\360\366\223\302\247\353\223\302\220\350\223\302\\\002\224\302\210\370\223\302\273\001\224\302\332\357\223\302\213\371\223\302w\353\223\302\302\372\223\302\267\350\223\302\372\367\223\302\212\377\223\302\320\002\224\302j\350\223\302\335\373\223\302\347\352\223\302G\372\223\302\n\370\223\302\264\363\223\302\004\004\224\302\364\367\223\302\204\372\223\302j\360\223\302\314\001\224\302>\003\224\302\247\356\223\302\323\363\223\302B\350\223\302\372\357\223\302\300\366\223\302\264\353\223\3028\365\223\302\336\366\223\302\303\367\223\302N\365\223\302\030\004\224\302\364\372\223\302\236\352\223\302\246\001\224\302\367\375\223\302F\366\223\302\355\363\223\302|\376\223\302I\272\223\302y\376\223\302Z\376\223\302\263\366\223\302\213\357\223\302\'\003\224\302\272\365\223\302\325\327\223\302\216\377\223\302\022\371\223\302\260\374\223\302\375\375\223\302\362\372\223\3022\355\223\302\374\355\223\302F\363\223\302\"\357\223\302\240\224\223\302\260\215\223\302\337\363\223\302\253\354\223\302\005\361\223\302\000\366\223\3027\374\223\302\302\355\223\302\261\373\223\3025\371\223\302\013\363\223\302\301\372\223\302\333\333\223\302\260\372\223\3022\375\223\302\321\371\223\302\275\364\223\302\202\357\223\302:\350\223\302\210\357\223\302\300\364\223\302\334\000\224\302\003\277\223\302e\357\223\302?\372\223\302F\353\223\302>\360\223\302\240\364\223\302\333\371\223\302\256\376\223\302\345\003\224\302\253\365\223\302\317\354\223\302*\367\223\302\241\373\223\302\332\367\223\302\360\363\223\3024\367\223\302\375\347\223\302\224\363\223\302}\362\223\302\251\271\223\302V\350\223\302\375\367\223\302\350\366\223\302\210\373\223\302\341\356\223\302)\366\223\302\357\363\223\302d\363\223\302s\366\223\302\261\007\224\302\355\357\223\302\305\375\223\302F\361\223\302\243\004\224\302\251\376\223\302J\002\224\3020\005\224\3023\004\224\302\305\003\224\302{\366\223\302I\373\223\302\374\351\223\302\375\364\223\302\266\340\223\302\262\276\223\3022\005\224\302E\350\223\302\206\005\224\302\307\277\223\302e\367\223\302\326\300\223\302\257\350\223\302\262\370\223\302#\362\223\302I\372\223\302\206\365\223\302\244\367\223\302\036\373\223\302t\346\223\302D\364\223\302 \365\223\302\r\357\223\302\313\007\224\302<\365\223\302 \376\223\302\314\367\223\302\370\362\223\302J\376\223\302\271\366\223\302\361\002\224\302\326\370\223\302\311\365\223\302\226\006\224\302\317\375\223\302\327\377\223\302i\345\223\302\313\376\223\302D\375\223\302\272\353\223\302\346\363\223\302\220\362\223\302\246\366\223\3024\360\223\302\325\371\223\302:\370\223\302\347\376\223\302\032\372\223\302\354\366\223\302\034\372\223\302w\351\223\302\353\365\223\302\311\277\223\302\335\364\223\302p\364\223\302c\347\223\302\201\353\223\302\215\370\223\302\255\354\223\302\367\373\223\302\324\010\224\302\302\001\224\302n\363\223\302\370\367\223\302W\220\223\302f\373\223\3021\346\223\302\372\356\223\302\027\001\224\302\242\365\223\302$\007\224\302+\317\223\302\211\372\223\302\373\275\223\302W\365\223\302\350\362\223\302\240\000\224\302\016\351\223\302f\353\223\302\003\347\223\302\362\000\224\302\350\367\223\302^\377\223\302\215\367\223\302\372\365\223\302\003\345\223\302\261\355\223\302\221\355\223\302\245\366\223\302{\373\223\302\330\003\224\302\200\366\223\302*\345\223\302\243\355\223\302\377\366\223\302\231\377\223\302\303\371\223\302\330\352\223\302\371\364\223\302y\367\223\302K\373\223\302W\366\223\302z\321\223\302\357\370\223\302\213\354\223\302\224\364\223\302\327\352\223\302\031\351\223\302k\350\223\302\275\002\224\302\331\366\223\302b\362\223\302\325\371\223\302\253\370\223\302\373\362\223\302-\351\223\302\261\364\223\302L\004\224\302\373\001\224\302\355\357\223\302\331\373\223\3027\371\223\302#\372\223\302g\365\223\302_\376\223\302\365\372\223\302\220\357\223\302>\010\224\302u\365\223\302f\351\223\302E\374\223\302w\003\224\302c\373\223\302\315\352\223\3027\361\223\302\321\373\223\302\000\372\223\302,\372\223\302L\004\224\302y\362\223\302L\002\224\302\220\363\223\302\226\363\223\302\311\361\223\302\'\362\223\302\236\353\223\302X\373\223\302\177\351\223\302&\364\223\302@\372\223\302,\370\223\302\026\365\223\302\330\366\223\302j\374\223\302\020\366\223\302\261\373\223\302\340\366\223\302A\367\223\302*\272\223\302^\346\223\302:\356\223\302\037\373\223\302\225\271\223\302\313\372\223\302\255\354\223\302\366\260\223\302\261\344\223\302V\364\223\302\265\375\223\302q\356\223\302U\342\223\302n\366\223\302\270\363\223\302\356\376\223\302v\371\223\302\363\000\224\302\233\372\223\302.\367\223\302\033\350\223\302\245\373\223\302\361\355\223\302@\372\223\302\037\307\223\302\005\354\223\302B\366\223\302\217\346\223\302\245\370\223\302e\003\224\302\346\356\223\302\202\357\223\302]\350\223\302\356\365\223\302\275\376\223\302>\373\223\302\306\005\224\302\020\363\223\302\365\275\223\302\023\375\223\302\022\003\224\302%\362\223\302z\370\223\302\203\371\223\302\216\002\224\302Y\367\223\302\225\355\223\302\005\366\223\302\\\372\223\302\251\223\223\302\034\363\223\302H\354\223\302\221\224\223\302[\353\223\302&\371\223\302\325\364\223\302\006\001\224\302\357\345\223\302\262\370\223\302\010\005\224\302\352\365\223\302\331\347\223\302\027\001\224\302\317\347\223\3020\002\224\302y\373\223\302h\000\224\302X\366\223\302;\372\223\302\230\366\223\302\353\370\223\302\346\377\223\302\246\003\224\302\016\375\223\302\363\365\223\302\330\355\223\302j\351\223\302\007\370\223\302\025\367\223\302\307\366\223\302s\273\223\302\244\371\223\302,\010\224\302\351\374\223\302\260\215\223\302\263\364\223\302\007\010\224\3020\355\223\302\206\362\223\302\323\367\223\302\236\211\223\302h\370\223\302\376\355\223\302\345\362\223\302\241\373\223\3021\356\223\302\224\374\223\302\320\362\223\302\017\370\223\302!\356\223\302\004\371\223\302Z\377\223\302\367\367\223\302\311\345\223\302p\361\223\302\t\366\223\302\266\366\223\302\263\374\223\302{\366\223\302\320\347\223\302\312\366\223\302m\360\223\302\017\002\224\302 \373\223\302\227\363\223\302\007\370\223\302U\366\223\302f\004\224\302j\352\223\302Q\364\223\302<\374\223\302\350\366\223\302\257\220\223\302\234\002\224\302\013\341\223\302\023\365\223\302\335\364\223\3024\350\223\302\221\000\224\302\235\350\223\302\037\367\223\302\350\371\223\302\374\361\223\302\001\375\223\302\222\322\223\302\233\371\223\302\317\375\223\302c\002\224\302\365\357\223\3020\353\223\302V\370\223\302\337\363\223\302\275\002\224\302&\376\223\302;\374\223\302\256\363\223\3026\370\223\302\357\373\223\302\336\366\223\302\342\376\223\3024\376\223\302\224\337\223\302\\\366\223\302\350\000\224\302q\002\224\302.\371\223\302F\366\223\302\343\373\223\302C\003\224\302\250\003\224\302-\005\224\302V\372\223\302\245\364\223\302\373\377\223\302)\221\223\302\371\001\224\302{\352\223\302k\003\224\302\203\366\223\302\212\373\223\302\355\366\223\302<\366\223\302\242\373\223\302\274\005\224\302R\367\223\302u\376\223\302\322\354\223\302\343\350\223\302\t\355\223\302\253\356\223\302\332\366\223\302\306\000\224\302(\001\224\302Z\370\223\302\300\367\223\302\356\350\223\302)\346\223\302\210\373\223\302H\347\223\302\311\362\223\302A\374\223\302\r\370\223\302[\341\223\302Z\375\223\302\356\364\223\302\351\361\223\302B\363\223\302\206\003\224\302S\366\223\302\233\357\223\302b\366\223\302\372\363\223\302\330\370\223\302\330\362\223\302\177\375\223\302l\370\223\302\276\357\223\302#\005\224\302\245\363\223\302\374\351\223\302\312\374\223\302\341\000\224\302\250\373\223\302\306\324\223\302z\374\223\302\002\357\223\302\236\367\223\302?\361\223\302&\374\223\302?\373\223\302~\354\223\302\311\001\224\302\265\277\223\302\366\361\223\302\200\372\223\302j\375\223\302O\347\223\302^\371\223\302\375\367\223\302\'\003\224\302O\371\223\302\373\355\223\302\360\366\223\302t\361\223\302+\377\223\302\207\344\223\302z\366\223\302\304\371\223\302\277\367\223\302\177\003\224\302,\376\223\302\337\365\223\302\302\356\223\302\240\373\223\302x\353\223\302\252\377\223\302\347\373\223\302\021\373\223\302\272\371\223\302^\220\223\302\342\375\223\302?\375\223\302\221\354\223\302~\350\223\302\305\004\224\302\237\370\223\302\346\377\223\302\235\375\223\302K\367\223\302\274\002\224\302\341\377\223\3028\366\223\302a\224\223\302\317\351\223\302\257\357\223\302\332\366\223\302\262\360\223\302\324\375\223\302$\354\223\302\255\325\223\302\267\370\223\302\354\002\224\302)\373\223\302\307\326\223\302L\371\223\302!\371\223\302\356\361\223\302t\001\224\302\260\376\223\302\001\277\223\302\271\362\223\302&\363\223\302\350\364\223\302\201\361\223\302@\370\223\302\354\350\223\302\241\373\223\302\244\373\223\3029\372\223\302L\361\223\302%\362\223\302j\365\223\302\212\374\223\302k\370\223\302\325\364\223\302Y\363\223\302~\354\223\302K\367\223\302\027\364\223\302{\353\223\302~\363\223\302\212\365\223\302\306\371\223\302\252\364\223\3028\364\223\302\342\371\223\3024\360\223\302\345\360\223\302-\376\223\302\227\355\223\302C\001\224\302k\375\223\302\307\372\223\302h\372\223\302\272\350\223\302R\361\223\302 \370\223\302\262\363\223\3020\371\223\302f\000\224\302\031\351\223\302\372\000\224\302t\003\224\302\250\365\223\302h\355\223\302\273\346\223\302\260\000\224\302\250\354\223\302\355\372\223\302\345\345\223\302\313\005\224\3026\344\223\302\240\376\223\302\345\361\223\302A\347\223\302\346\275\223\302\026\001\224\302\373\351\223\302>\375\223\302\315\363\223\302*\357\223\302\201\000\224\302\337\365\223\302\242\005\224\302\212\373\223\302\230\371\223\302\372\356\223\302&\332\223\302B\220\223\302]\376\223\302i\366\223\302\000\373\223\302\004\357\223\302\312\370\223\302\214\364\223\302_\373\223\302\261\375\223\302\344\007\224\302\233\364\223\302\227\371\223\302o\375\223\302R\363\223\302Q\372\223\302\351\356\223\302Q\305\223\302S\372\223\302>\351\223\302\370\352\223\302z\371\223\302\266\371\223\302\002\002\224\302\207\003\224\302\320\367\223\302\335\366\223\302\r\357\223\302\356\370\223\302\353\374\223\302\223\367\223\302`\005\224\302g\220\223\302\267\350\223\302U\363\223\302w\371\223\302\244\365\223\302^\351\223\302\375\003\224\302\222\377\223\302i\361\223\302\344\346\223\3024\356\223\302L\371\223\302\255\215\223\302a\370\223\302\232\361\223\302k\354\223\302\254\377\223\302\023\362\223\302\246\000\224\302\216\371\223\302X\372\223\302X\350\223\302\366\373\223\302u\366\223\3022\001\224\3023\002\224\302\243\370\223\302\177\000\224\302C\364\223\302\034\000\224\302F\375\223\302\372\352\223\302$\374\223\302Z\002\224\302\234\366\223\302\344\372\223\302\372\361\223\302F\373\223\302\346\374\223\302\324\376\223\302^\371\223\302\312\347\223\3029\375\223\302\r\347\223\302\242\215\223\302\267\364\223\302.\353\223\302\367\366\223\302\205\375\223\302t\364\223\302]\361\223\302\202\353\223\302\375\366\223\302j\000\224\302\\\364\223\302$\370\223\3027\373\223\302b\366\223\302+\367\223\302\270\006\224\302j\003\224\302\310\271\223\302\031\376\223\302D\374\223\302\372\356\223\302j\224\223\302\267\357\223\302[\356\223\302\220\343\223\302\266\360\223\302\313\366\223\302?\367\223\3024\362\223\302\000\366\223\302\220\354\223\302\256\373\223\302>\376\223\302A\001\224\302O\370\223\302{\311\223\302\253\367\223\302\346\365\223\302S\351\223\302\303\377\223\302\361\364\223\302\353\374\223\302T\352\223\302\215\372\223\302\017\005\224\302\212\377\223\302y\000\224\302T\374\223\302\317\366\223\302\237\355\223\302N\370\223\302\275\365\223\302\324\371\223\302\203\371\223\302Q\370\223\302\035\375\223\302\316\364\223\302\210\365\223\302\026\364\223\302&\370\223\302\016\005\224\302\344\361\223\302&\370\223\302.\367\223\302\361\372\223\302 \377\223\302\347\007\224\302M\371\223\3020\364\223\302\254\366\223\302\267\363\223\302{\375\223\302c\353\223\302\"\377\223\302\215\353\223\302\277\367\223\302\350\366\223\302\357\346\223\302\305\002\224\302g\001\224\302\324\357\223\302u\371\223\302\272\003\224\3027\000\224\302\266\361\223\302\374\364\223\302\241\366\223\302i\004\224\302\370\361\223\3026\365\223\302R\001\224\302&\367\223\302N\367\223\3028\367\223\302\243\374\223\302W\364\223\302q\366\223\302\274\370\223\302\274\377\223\302\024\366\223\302\352\374\223\302\302\370\223\302\355\001\224\302K\356\223\302\202\372\223\302l\367\223\302\004\002\224\3029\365\223\302=\005\224\302\026\000\224\302\347\351\223\302)\346\223\302\206\362\223\302J\371\223\302\227\373\223\302l\361\223\302t\376\223\302\370\363\223\3026\372\223\302S\001\224\302\260\354\223\302\247\350\223\302}\362\223\302m\004\224\302t\000\224\302a\367\223\302D\361\223\302\262\360\223\302W\351\223\302t\367\223\302\023\366\223\302\030\373\223\302\"\353\223\302D\367\223\302\341\372\223\302\301\356\223\302;\350\223\302\\\007\224\302\371\002\224\302\242\367\223\302\201\354\223\3028\350\223\302\315\350\223\302\302\271\223\302\276\271\223\302\234\361\223\302{\346\223\302\346\277\223\302\327\366\223\302\027\350\223\302\034\003\224\302\367\367\223\302\273\375\223\3027\000\224\302\363\366\223\302\321\367\223\302?\346\223\302\305\360\223\302Z\360\223\302p\365\223\3023\362\223\302\230\001\224\302\n\000\224\302\230\353\223\3023\373\223\302\210\371\223\302\232\346\223\302Y\362\223\302\226\364\223\302\216\346\223\302\007\366\223\302F\362\223\302\323\277\223\302\005\367\223\302|\375\223\302k\366\223\302&\370\223\302D\340\223\302\362\371\223\302\273\357\223\302>\363\223\302\316\366\223\302\034\351\223\302t\372\223\302N\337\223\302\320\376\223\302\243\002\224\302\365\373\223\302\374\272\223\3022\362\223\302\020\367\223\302\210\373\223\302\323\376\223\302\254\001\224\302J\375\223\302\010\365\223\302\206\362\223\302\235\002\224\302l\365\223\302\025\345\223\302\332\356\223\302=\010\224\302o\375\223\302p\370\223\302\212\367\223\302T\354\223\302T\366\223\302\247\350\223\302\331\275\223\302\201\005\224\302\245\373\223\302j\306\223\302\372\366\223\302{\356\223\302\217\374\223\302=\376\223\302\302\350\223\302\227\367\223\302\371\354\223\302\306\365\223\302\217\364\223\302#\376\223\302A\005\224\302\271\371\223\302\216\364\223\302j\372\223\302\253\373\223\3024\004\224\302u\000\224\302\214\377\223\302\005\000\224\302k\377\223\302\371\374\223\302\243\350\223\302\276\373\223\302\333\372\223\302\330\352\223\302H\352\223\302\302\351\223\302\335\375\223\302\263\277\223\302Z\352\223\302\034\363\223\302\302\362\223\302H\364\223\302Y\374\223\302G\356\223\302e\370\223\302\306\366\223\302\254\330\223\302\236\371\223\302\026\376\223\302\252\371\223\302\000\364\223\302d\220\223\302\005\003\224\302\"\003\224\302\261\371\223\302j\344\223\302\036\350\223\302\203\362\223\302!\366\223\302M\361\223\302\233\000\224\302-\373\223\302\310\360\223\302a\352\223\302.\364\223\302\027\373\223\3029\001\224\302\024\367\223\302\357\242\223\302t\364\223\302V\366\223\302\254\003\224\302D\363\223\302\352\364\223\302m\362\223\302\272\376\223\302\363\000\224\302\255\377\223\302U\351\223\302\021\354\223\302 \377\223\302\340\002\224\302\220\356\223\302P\375\223\302\203\004\224\302\342\364\223\3021\364\223\302T\305\223\302\t\360\223\302\334\372\223\302\"\007\224\302\027\370\223\302\331\373\223\302\243\373\223\302=\376\223\302\230\356\223\302v\363\223\302Z\361\223\302N\374\223\302g\375\223\302a\352\223\302\307\360\223\302\036\000\224\302P\366\223\302K\375\223\3024\356\223\3023\001\224\302\245\355\223\302\350\371\223\302r\350\223\302\363\374\223\302_\373\223\3026\354\223\302\241\370\223\302\251\362\223\302_\361\223\3022\010\224\302\274\373\223\302?\003\224\302f\355\223\302\353\002\224\302>\344\223\302\220\367\223\302\230\355\223\302\351\366\223\302\306\370\223\302\361\356\223\302\353\002\224\302\241\360\223\302|\000\224\302\031\354\223\302m\355\223\302\333\375\223\302\310\005\224\302n\367\223\302;\345\223\302\252\376\223\302\361\362\223\302\036\373\223\3022\375\223\302\375\276\223\302|\000\224\302\332\377\223\302\031\371\223\302\343\366\223\302\014\352\223\302q\347\223\302\336\345\223\302\263\371\223\3027\375\223\302\016\371\223\302H\272\223\302\023\372\223\302\375\366\223\302\272\374\223\302:\367\223\302\246\361\223\302\022\372\223\302\250\002\224\302A\372\223\302\355\373\223\302*\371\223\302\255\271\223\302\032\357\223\302\274\357\223\302\217\362\223\302\245\377\223\302*\375\223\302\000\372\223\302\355\366\223\302\337\375\223\302M\342\223\302\300\277\223\302\324\363\223\302\317\371\223\302c\375\223\302\007\365\223\302;\371\223\302\367\364\223\302\330\376\223\302\r\363\223\302\212\367\223\302\373\352\223\302,\355\223\302&\354\223\302\374\343\223\302\320\347\223\302l\355\223\302w\376\223\302\344\376\223\302\013\365\223\302\263\374\223\302g\344\223\302\024\351\223\302o\347\223\302\r\365\223\302r\371\223\302\263\003\224\302{\216\223\302\363\354\223\302\322\376\223\302\361\365\223\302\310\373\223\302\246\353\223\302 \370\223\302\001\377\223\302\351\003\224\302\000\005\224\302\313\375\223\302\341\366\223\302\325\362\223\302\332\223\223\302\347\365\223\302\006\373\223\302\210\374\223\302@\353\223\302\313\364\223\302\313\354\223\302b\364\223\302\001\361\223\302\326\373\223\302R\374\223\302\t\224\223\302\261\363\223\302P\003\224\302\237\371\223\302^\220\223\302\312\373\223\302a\367\223\302\356\000\224\302\203\353\223\302]\375\223\302\007\007\224\302\256\350\223\302-\336\223\302;\364\223\302s\351\223\302o\373\223\302\214\354\223\302{\372\223\302\250\374\223\302U\220\223\302\376\366\223\302\336\370\223\302\347\334\223\302\206\361\223\302\361\364\223\302F\366\223\302b\374\223\302\250\343\223\302n\371\223\302\271\215\223\302\271\360\223\302\227\362\223\302v\371\223\302\333\366\223\302\362\357\223\302^\377\223\302[\003\224\302P\377\223\302\245\000\224\3029\375\223\302J\350\223\302\361\345\223\3025\366\223\302\236\361\223\3021\366\223\302\361\355\223\302\345\352\223\302|\361\223\302\337\354\223\302\372\373\223\302\205\366\223\302\345\361\223\302\331\351\223\302B\371\223\302\224\377\223\302\336\003\224\302u\376\223\302\227\366\223\302\340\003\224\302j\375\223\302\260\376\223\302S\002\224\302\336\373\223\302=\370\223\302\312\356\223\3025\004\224\302p\366\223\302\313\365\223\302\314\000\224\302g\363\223\302\204\377\223\302>\362\223\302\331\373\223\302H\370\223\302\250\374\223\302\216\370\223\302\336\365\223\302&\364\223\302w\001\224\302\004\002\224\3028\003\224\302\001\370\223\302\272\364\223\302\244\366\223\302X\377\223\302\315\370\223\302r\360\223\302\223\364\223\302\251\337\223\302\354\366\223\302\204\004\224\302\370\332\223\302b\376\223\302\355\367\223\302\205\363\223\302\t\004\224\3020\363\223\302\237\373\223\302\200\370\223\302\036\375\223\302T\003\224\302\334\275\223\302\301\352\223\302\035\375\223\302\213\360\223\302\336\360\223\302|\356\223\302\037\367\223\302\261\344\223\302\266\356\223\302/\360\223\302 \370\223\302\250\000\224\302{\364\223\302U\003\224\302%\001\224\302\265\371\223\302\377\355\223\302\276\005\224\302\023\221\223\302\027\365\223\302\206\000\224\302\373\365\223\302\253\371\223\302\222\343\223\302b\377\223\302\324\362\223\302\300\365\223\302\211\360\223\302\214\371\223\302\325\357\223\302Z\356\223\302\274\000\224\302t\355\223\302\037\272\223\302\322\364\223\302\302\271\223\302\277\361\223\302\215\361\223\302?\370\223\302\367\374\223\302\222\372\223\302v\366\223\302g\374\223\302\003\366\223\302k\367\223\302V\004\224\302\375\370\223\302L\367\223\302A\355\223\302n\371\223\302\222\375\223\302T\362\223\302\305\365\223\302\234\370\223\302N\350\223\302,\371\223\302}\367\223\302\353\001\224\302\237\002\224\302\373\002\224\302\007\006\224\302J\370\223\302\240\361\223\302\030\366\223\302\365\374\223\302\247\371\223\302\227\370\223\302;\372\223\302\350\336\223\302O\366\223\302\372\356\223\302\034\363\223\302a\362\223\302\247\362\223\302T\001\224\3027\001\224\302k\370\223\302G\345\223\302\024\367\223\302\017\367\223\302\353\366\223\302\007\373\223\302\256\373\223\302\352\364\223\302\036\374\223\302)\344\223\302\035\004\224\302{\357\223\302\307\366\223\302\330\376\223\302N\000\224\302\327\367\223\302\333\346\223\302\371\371\223\302\342\372\223\302\231\004\224\302\362\364\223\302\364\367\223\302|\346\223\302\242\373\223\302\276\355\223\302\035\377\223\302\366\363\223\302\326\353\223\302\313\350\223\302\267\315\223\302\230\002\224\302\347\354\223\302\361\223\223\302\351\366\223\302\306\374\223\302V\360\223\302.\366\223\302\\\002\224\302T\002\224\302\363\364\223\302c\371\223\302\210\363\223\302\336\353\223\302\376\355\223\302\311\373\223\302\027\375\223\302\365\360\223\302X\370\223\302\341\374\223\302*\354\223\302~\362\223\302\363\371\223\302}\004\224\302\336\345\223\302\247\367\223\302\007\374\223\3025\373\223\302\252\373\223\302|\353\223\302\371\276\223\302>\365\223\302\013\364\223\302\r\360\223\302\025\007\224\302\221\350\223\302\321\360\223\302\026\000\224\302\177\003\224\302f\366\223\302\242\347\223\302\202\350\223\302\374\362\223\302W\350\223\302A\352\223\302\202\007\224\302-\002\224\302\254\375\223\302R\365\223\302\026\363\223\302\t\003\224\302S\370\223\302\375\374\223\302\014\367\223\302t\337\223\302\252\002\224\302\272\364\223\302\267\352\223\302J\357\223\302\022\371\223\302{\364\223\302\302\367\223\3020\362\223\302\\\367\223\302\014\372\223\302\027\350\223\302\266\367\223\302\221\366\223\302m\366\223\3023\353\223\302\253\366\223\302\361\366\223\302\001\375\223\302R\373\223\302\263\374\223\302F\377\223\302\242\354\223\302\326\370\223\302\307\377\223\302\272\354\223\302\223\363\223\302\016\373\223\302\206\006\224\302\341\360\223\3021\365\223\302\201\371\223\302\363\365\223\302\360\346\223\302\355\365\223\302:\003\224\302\373\371\223\302\370\276\223\302\270\002\224\302\376\364\223\302\243\341\223\302\226\347\223\302\365\361\223\302q\366\223\302\360\366\223\302\337\006\224\302\254\215\223\302\217\371\223\302\323\004\224\302\352\374\223\302\340\001\224\3029\372\223\302\236\370\223\3023\353\223\302\372\367\223\302A\375\223\302]\004\224\302\307\001\224\302\307\360\223\302\t\352\223\302c\363\223\302\310\354\223\302?\373\223\3028\350\223\302\265\357\223\302\004\361\223\302\271\362\223\302\270\215\223\302\343\365\223\302\371\363\223\302\340\373\223\302u\373\223\302\221\347\223\3020\354\223\302\\\374\223\302&\366\223\302\031\004\224\302K\220\223\302J\365\223\302\252\366\223\302\323\372\223\3027\366\223\302\177\377\223\302\361\375\223\302\370\373\223\302:\361\223\302M\373\223\302l\370\223\302\016\367\223\302M\372\223\302\330\003\224\302n\346\223\302\257\002\224\302\315\372\223\302J\367\223\302\037\367\223\302\t\366\223\302w\366\223\302\264\376\223\302\026\001\224\302\004\363\223\302\022\000\224\302\232\356\223\302Z\001\224\302\334\375\223\302\'\375\223\302o\362\223\302\310\361\223\302\261\367\223\302y\370\223\302A\370\223\302\235\357\223\302\253\365\223\302\367\361\223\302\242\364\223\302 \375\223\302Y\372\223\3027\361\223\302E\001\224\302\377\000\224\302\361\364\223\302\336\352\223\302@\363\223\302N\372\223\302\376\367\223\302E\360\223\302\207\365\223\3026\374\223\302\n\373\223\302\335\375\223\3020\360\223\302w\004\224\302\201\361\223\302\234\374\223\302\006\374\223\302@\375\223\302\321\366\223\302\222\005\224\302N\366\223\302\355\353\223\302*\351\223\302\200\372\223\302\261\351\223\302\335\361\223\302R\371\223\302o\364\223\302\212\367\223\302\245\224\223\302-\351\223\302Y\355\223\302i\373\223\302\300\372\223\302Z\237\223\302\313\370\223\302\262\003\224\3021\344\223\302y\366\223\302~\350\223\302\203\352\223\302h\357\223\302\217\361\223\302l\363\223\302i\220\223\302\262\365\223\302\364\372\223\302\030\376\223\302\217\363\223\302\320\372\223\302\354\363\223\302\242\007\224\302\334\366\223\302\031\355\223\302\033\367\223\302\227\376\223\302\'\222\223\302s\372\223\302 \374\223\302\030\366\223\302\372\367\223\302\022\376\223\302$\356\223\302\304\004\224\302X\372\223\302\341\360\223\302\205\363\223\302p\353\223\302\255\370\223\302\033\375\223\302k\354\223\302\353\340\223\302\266\215\223\302q\003\224\302N\353\223\302\370\357\223\302\013\373\223\302\276\367\223\302\313\374\223\302\217\371\223\302\355\373\223\302i\374\223\302\016\361\223\302\265\376\223\302u\350\223\302h\001\224\302\215\364\223\302d\220\223\302\006\367\223\302\010\353\223\302\234\372\223\302\333\366\223\302E\357\223\302\213\376\223\302\027\003\224\302$\375\223\302\321\370\223\302m\361\223\302\310\366\223\302\004\353\223\302@\371\223\302g\361\223\302`\224\223\302\340\276\223\302e\366\223\302I\375\223\302\252\354\223\302\'\000\224\302\315\275\223\302\252\376\223\302Z\336\223\302\330\004\224\302\216\006\224\302e\366\223\302r\347\223\3021\374\223\302p\356\223\302\331\371\223\302>\366\223\302\002\340\223\302D\375\223\302\352\371\223\302X\375\223\302\236\360\223\302T\375\223\302b\001\224\302k\372\223\302\003\361\223\302j\375\223\302\231\001\224\302\364\001\224\302\376\375\223\302>\376\223\302\273\350\223\302\270\216\223\302z\357\223\302\356\370\223\302N\366\223\302\344\342\223\302\302\351\223\302\346\375\223\302F\362\223\302\240\357\223\302Q\371\223\302\037\360\223\302\376\363\223\302\232\347\223\302\272\342\223\302/\374\223\3020\370\223\302\366\372\223\302\027\000\224\302\323\367\223\302\311\001\224\302A\356\223\302\371\364\223\302W\363\223\302\235\375\223\302\253\005\224\3027\001\224\302c\372\223\302\376\360\223\302\340\366\223\302\030\335\223\302G\357\223\302#\346\223\302\314\356\223\302L\364\223\302\303\364\223\302\314\375\223\302\t\355\223\302\261\374\223\302\202\367\223\302\344\372\223\302\236\365\223\302^\355\223\302\030\344\223\302j\360\223\302r\350\223\302m\366\223\302\353\331\223\302\335\355\223\302\307\374\223\302C\005\224\302\376\003\224\302\342\346\223\3023\366\223\3020\374\223\302\355\347\223\302\375\361\223\302\307\367\223\302/\361\223\302\032\362\223\302\356\354\223\302\'\370\223\302q\355\223\302\027\367\223\302\215\370\223\302\010\003\224\302,\373\223\302\271\366\223\302M\366\223\302\330\372\223\302\233\356\223\302S\363\223\302\317\367\223\302\352\375\223\302\036\373\223\302\250\352\223\302Q\352\223\302\330\366\223\302\246\002\224\302\007\377\223\302\246\005\224\302!\367\223\302<\375\223\302f\003\224\302-\362\223\302\033\365\223\3024\365\223\302y\006\224\302\210\376\223\302\356\000\224\302\277\371\223\302>\371\223\302\335\362\223\302\214\373\223\302\341\357\223\302\345\372\223\302\350\344\223\302s\343\223\3020\336\223\302\"\356\223\302\344\365\223\302\351\360\223\302\225\364\223\302f\373\223\302\227\326\223\302\317\360\223\302\363\342\223\302]\375\223\302\377\354\223\302\262\361\223\302i\004\224\302\224\357\223\302F\360\223\302)\366\223\302\224\363\223\302\336\364\223\302^\366\223\302\244\377\223\302\226\351\223\302|\355\223\302\262\367\223\302\210\353\223\302d\374\223\302\374\372\223\302\321\375\223\3027\371\223\302\253\355\223\302\247\353\223\302\014\366\223\302N\000\224\302\336\343\223\302\230\370\223\302\276\374\223\302\351\370\223\302\302\270\223\302\366\375\223\302s\006\224\302\013\363\223\302\356\356\223\302\365\372\223\302\237\345\223\302w\372\223\302\234\361\223\302#\364\223\302\r\004\224\302i\354\223\302=\361\223\302\205\001\224\3022\374\223\302\275\324\223\302\225\367\223\302\322\373\223\302j\000\224\302)\366\223\302\230\366\223\302\254\353\223\302\201\371\223\302\214\223\223\302\n\000\224\302\225\360\223\302N\220\223\302J\353\223\302t\233\223\302\372\363\223\302\224\365\223\302\303\357\223\302\304\362\223\302\317\364\223\302\311\367\223\302\352\003\224\302Y\371\223\302\245\370\223\302\377\357\223\302C\347\223\302\204\375\223\302n\000\224\302\324\354\223\302\037\362\223\302\257\354\223\302\350\362\223\302\200\001\224\3024\344\223\302\322\371\223\302\325\355\223\302:\352\223\302\266\367\223\302q\363\223\302\355\372\223\302\033\344\223\302v\364\223\302\020\366\223\302\320\346\223\302\344\367\223\302Q\366\223\302]\363\223\302(\366\223\302\000\354\223\302\362\345\223\302\003\377\223\302`\355\223\302\331\344\223\302\273\364\223\302\375\370\223\302\270\372\223\302!\364\223\302V\276\223\302\013\330\223\302\014\272\223\302\350\371\223\302\233\361\223\302\371\353\223\302{\374\223\3025\372\223\302\240\341\223\302\024\364\223\302\211\350\223\302\221\365\223\302x\223\223\302.\351\223\302\376\357\223\302m\362\223\302\254\374\223\302\371\353\223\302u\351\223\302Q\376\223\302\355\003\224\302;\376\223\302\202\344\223\302]\365\223\302\017\374\223\302\307\377\223\302*\372\223\302p\360\223\302\316\271\223\302\314\275\223\302|\352\223\302)\004\224\302S\224\223\302<\366\223\3025\367\223\302\310\376\223\302\374\366\223\3028\362\223\302\250\354\223\302\327\277\223\302\205\366\223\302\330\366\223\302Q\366\223\302:\000\224\302[\377\223\302\243\356\223\302\362\361\223\302.\003\224\302f\004\224\302Q\341\223\302\255\351\223\302\355\363\223\302,\360\223\302\206\375\223\302\267\370\223\302\r\364\223\302!\360\223\302\034\374\223\302X\373\223\302\302\375\223\302\360\343\223\302\023\373\223\302\306\346\223\302\032\353\223\302\241\373\223\302O\354\223\302\276\000\224\302\332\007\224\302a\365\223\302\265\374\223\302j\220\223\302s\356\223\302\305\365\223\302M\366\223\302\203\370\223\302;\365\223\302\324\350\223\302?\372\223\302\255\357\223\302\274\361\223\302\312\360\223\302\031\000\224\302\344\366\223\302\002\000\224\302\256\375\223\302N\373\223\302\206\000\224\302@\367\223\302E\376\223\302\373\345\223\302\313\372\223\302\251\373\223\302\352\373\223\302\374\350\223\302\253\354\223\302\354\350\223\302\234\366\223\3024\371\223\302o\366\223\302\005\365\223\302\267\366\223\302\004\371\223\302\215\370\223\302\372\374\223\302z\364\223\302\315\002\224\302\273\347\223\302\010\334\223\3029\377\223\302\024\370\223\302x\367\223\302(\351\223\302\203\366\223\302\017\371\223\302\234\361\223\302\315\364\223\302\246\311\223\302\315\271\223\302\301\370\223\302=\356\223\302\025\357\223\302{\371\223\302\231\357\223\302\355\373\223\302\312\373\223\302\234\366\223\302\224\374\223\302\373\377\223\302\217\344\223\302\217\350\223\302 \370\223\302\200\360\223\302\367\365\223\302s\365\223\302\331\352\223\302\001\001\224\302\013\224\223\302|\367\223\302\350\337\223\302\325\377\223\302Q\002\224\302\331\346\223\302\223\355\223\302<\370\223\3026\357\223\302J\365\223\302\324\376\223\302\004\361\223\302+\360\223\302\030\367\223\302q\374\223\302}\372\223\302\234\356\223\302\376\005\224\302e\351\223\302\353\366\223\302\361\377\223\302\375\372\223\302G\272\223\302@\361\223\302\205\347\223\302\331\344\223\302\324\361\223\302V\353\223\302k\220\223\302\377\374\223\302\032\003\224\302\340\364\223\302\031\273\223\302\212\000\224\302\362\361\223\302%\364\223\302\276\277\223\302f\360\223\302\374\006\224\302\227\351\223\302n\364\223\302\345\362\223\302t\352\223\302\265\372\223\302L\220\223\302\224\375\223\302\205\367\223\302\236\363\223\302\005\004\224\302\010\375\223\302\035\362\223\302\311\362\223\302\364\357\223\302\221\354\223\302\002\350\223\302o\000\224\302\031\374\223\302\214\001\224\302\356\372\223\302e\375\223\302\032\363\223\302{\003\224\302\366\372\223\302*\366\223\302.\374\223\302q\362\223\302\'\374\223\302\321\377\223\302\341\370\223\302\230\366\223\302\321\352\223\302\325\376\223\302f\367\223\302l\372\223\302l\375\223\302\325\374\223\302\\\365\223\302\366\373\223\302\371\347\223\302\205\365\223\302\010\362\223\302\t\346\223\302:\376\223\302k\377\223\302\000\374\223\302\000\003\224\302;\365\223\302\372\370\223\302\262\372\223\302\337\350\223\302\250\271\223\302\360\353\223\302W\365\223\302:\362\223\3027\373\223\302!\010\224\302\312\353\223\302\256\367\223\302\250\374\223\302\234\371\223\302\006\377\223\302g\004\224\302!\367\223\302\354\346\223\302r\365\223\302\301\374\223\3023\366\223\302\016\375\223\302\207\372\223\302?\361\223\302;\374\223\302*\367\223\302c\371\223\302@\351\223\302\255\373\223\302.\365\223\302\251\357\223\302)\357\223\302d\347\223\302\267\356\223\302c\376\223\302\345\364\223\302\277\376\223\302\326\356\223\302\247\372\223\302/\362\223\302$\370\223\302O\366\223\302\344\006\224\302\032\376\223\302@\001\224\302/\346\223\302C\221\223\302\003\366\223\302\366\347\223\302\205\372\223\302\223\373\223\302\327\271\223\302L\371\223\302\364\363\223\302\235\361\223\302I\272\223\302\023\345\223\302\366\372\223\302\225\361\223\302\020\374\223\302\014\362\223\302O\372\223\302^\000\224\302t\375\223\302\276\002\224\302\307\001\224\302\023\346\223\302a\337\223\302\265\370\223\302x\000\224\302\254\347\223\302X\364\223\302\375\001\224\302\034\371\223\302\327\366\223\302!\376\223\302\264\363\223\302[\374\223\302\302\374\223\302\031\365\223\302\252\373\223\302A\351\223\302X\002\224\302\372\247\223\302\336\353\223\302\023\367\223\302\\\370\223\302\343\357\223\302U\003\224\302\301\374\223\302\307\371\223\302\246\377\223\302\021\366\223\302_\373\223\302\230\006\224\302\366\360\223\302*\006\224\302\217\361\223\302\305\370\223\302\326\356\223\302\374\366\223\302A\365\223\302v\362\223\302l\003\224\302\345\334\223\302\006\374\223\302\017\363\223\302\260\215\223\302\026\372\223\302\035\365\223\302\223\360\223\302\257\377\223\302\206\356\223\302\313\376\223\302O\365\223\302\260\364\223\302\353\364\223\302\367\374\223\302B\370\223\302\250\360\223\302\254\367\223\302\333\372\223\302k\373\223\302\230\351\223\302\330\372\223\302{\347\223\302Y\222\223\302/\360\223\302\335\374\223\302\005\353\223\302>\371\223\302+\272\223\302\350\376\223\302J\001\224\302\r\377\223\302=\362\223\302\337\000\224\302\230\364\223\302l\362\223\302n\375\223\302\312\346\223\302\202\353\223\302)\366\223\302\311\371\223\302d\357\223\302\r\350\223\302\375\371\223\302\254\002\224\302\277\372\223\302\225\375\223\302\002\365\223\302\326\364\223\302\222\365\223\302\270\220\223\302\027\345\223\302\274\354\223\302\013\362\223\302\017\374\223\302\244\367\223\302\316\363\223\302\332\366\223\302>\365\223\302O\351\223\3026\372\223\302\244\355\223\302\211\224\223\302\371\372\223\302\255\373\223\302\334\357\223\302\256\363\223\302(\365\223\302\326\223\223\302n\341\223\302P\372\223\302\262\003\224\302>\365\223\302\303\344\223\302\200\366\223\302]\374\223\302.\345\223\302G\001\224\302W\001\224\302:\370\223\302\271\000\224\302B\374\223\302X\362\223\302\322\366\223\302\333\371\223\302\376\366\223\302\230\372\223\302P\220\223\302\003\374\223\302\"\345\223\302\031\370\223\302\201\371\223\302\360\275\223\302\235\366\223\302\222\355\223\302\272\370\223\302k\375\223\302\351\374\223\3020\374\223\302`\362\223\302\256\373\223\302J\370\223\302\r\357\223\302\202\365\223\302\203\366\223\302\216\346\223\302\224\363\223\302\336\006\224\302\361\004\224\3027\377\223\302\345\362\223\302z\375\223\302Z\345\223\302\361\271\223\302\243\376\223\3028\001\224\3022\363\223\302S\371\223\302\345\356\223\302\006\363\223\302F\352\223\302`\347\223\302\367\373\223\302c\366\223\302{\356\223\302^\377\223\302\267\377\223\302i\352\223\302[\353\223\302\327\366\223\302\262\373\223\302\245\364\223\302e\374\223\302\344\363\223\302|\003\224\302Q\345\223\302\022\366\223\302r\356\223\302m\351\223\302J\373\223\302\021\371\223\3029\366\223\302\347\363\223\302*\352\223\302\313\354\223\302\366\361\223\302x\357\223\302\327\356\223\302 \346\223\302}\372\223\302\303\371\223\302\306\352\223\302\207\355\223\302\375\363\223\302\032\366\223\302\315\357\223\302\303\370\223\302\000\355\223\302\004\354\223\302\311\277\223\302\317\375\223\302\274\003\224\302|\376\223\302\351\371\223\302\005\364\223\302j\366\223\302\321\361\223\302\031\377\223\302\326\365\223\302\314\371\223\302>\002\224\302J\363\223\302\016\360\223\302\246\374\223\302u\364\223\302\233\372\223\302\251\372\223\302\212\352\223\302\247\001\224\302\252\007\224\302|\345\223\302\354\005\224\302$\360\223\302~\367\223\302\371\371\223\302\321\350\223\302\005\363\223\302\305\345\223\302\013\366\223\302y\372\223\302\274\346\223\302 \364\223\302m\371\223\302\212\365\223\302\n\355\223\302C\366\223\302d\003\224\302\253\353\223\302\267\277\223\302\250\375\223\302s\366\223\302\356\372\223\302\351\347\223\302\221\364\223\302\357\351\223\302\014\370\223\302^\374\223\302\021\365\223\302T\361\223\302\212\374\223\302B\372\223\302\347\374\223\302\225\352\223\302[\375\223\302\340\352\223\302\351\000\224\302\005\371\223\302\344\356\223\302\265\372\223\302n\365\223\302\373\302\223\302/\351\223\302\213\371\223\302\306\361\223\302\312\344\223\302\235\357\223\302\201\364\223\302\016\373\223\302\034\361\223\302\330\367\223\302\245\366\223\302\245\356\223\302\001\371\223\302\317\377\223\302\262\366\223\302\252\003\224\302\326\376\223\302\307\367\223\302\330\376\223\302\000\363\223\302\357\006\224\302:\373\223\302\207\370\223\3024\352\223\302E\353\223\302\341\354\223\302S\365\223\302\245\000\224\302\347]\224\302Z\001\224\302\017\371\223\302\357\376\223\302\223\006\224\302\r\373\223\302\030\005\224\302.\353\223\302\034\367\223\302\316\351\223\302\326\371\223\302\276\357\223\302\234\005\224\302\276\372\223\302\340\004\224\302\312\366\223\302\\\353\223\302\'\331\223\3023\366\223\302s\352\223\302\217\371\223\302\366\366\223\302\325\001\224\302\322\372\223\302|\372\223\302<\361\223\302^\000\224\302\240\002\224\302\367\361\223\302}\351\223\302\006\277\223\3023\346\223\302\204\365\223\302.\345\223\302w\362\223\302\365\375\223\302A\376\223\302\331\366\223\302A\373\223\302\337\363\223\302:\362\223\302\213\002\224\302:\373\223\302G\374\223\302V\377\223\302\304\353\223\302w\366\223\302\377\371\223\302\237\002\224\302\221\375\223\302l\367\223\302\365\346\223\302\336\361\223\302\360\005\224\302\244\366\223\302\031\374\223\302\310\374\223\302\316\370\223\3026\375\223\302\372\354\223\302\022\357\223\302\262\353\223\302\243\347\223\302\021\370\223\302\345\367\223\302E\370\223\302\351\361\223\302\333\366\223\302Z\000\224\302]\371\223\3026\363\223\302+\360\223\302\346\362\223\302\034\351\223\302\032\351\223\302}\362\223\302\257\364\223\302\016\374\223\302\016\370\223\302T\367\223\302\025\367\223\302\337\371\223\302\"\272\223\302\202\366\223\302\210\352\223\302}\366\223\302\030\004\224\302W\364\223\302]\366\223\302\226\344\223\302\016\352\223\302&\366\223\302\257\001\224\302V\362\223\302a\003\224\302v\351\223\302\311\371\223\302\305\005\224\302\230\371\223\302\032\364\223\302 \361\223\302Q\364\223\302|\352\223\302;\001\224\302v\360\223\302\206\003\224\302(\355\223\302\203\376\223\302U\007\224\302\033\376\223\302)\372\223\302\010\351\223\302\376\002\224\302}\376\223\302\035\366\223\302\223\346\223\302K\377\223\302\370\372\223\302\235\373\223\302t\371\223\302\301\376\223\302]\354\223\302\334\366\223\302,\376\223\302\225\370\223\302\020\354\223\302|\220\223\302\312\370\223\302\274\007\224\302\370\357\223\302\273\363\223\302t\365\223\302\t\360\223\302\305\351\223\302q\370\223\302\305\352\223\302\343\370\223\302\211\001\224\302\265\004\224\302\007\357\223\302\355\371\223\302\310\376\223\302\352\364\223\302<\352\223\302V\376\223\302\255\352\223\302\335\003\224\302\250\345\223\302\320\362\223\302\367\356\223\302\351\271\223\302\177\371\223\302\374\001\224\302\005\326\223\302\237\000\224\302\303\370\223\302\202\003\224\302M\352\223\302\351\363\223\302V\362\223\302L\005\224\302\035\361\223\302L\352\223\302\376\276\223\302;\364\223\302\014\365\223\302Y\373\223\302\034\000\224\302\217\224\223\302a\363\223\302\\\365\223\302\311\372\223\302\004\362\223\302>\355\223\302\316\366\223\302b\000\224\302\201\357\223\302\234\355\223\302\217\374\223\302\252\000\224\302d\375\223\302\027\365\223\302\323\002\224\302\014\356\223\302\033\353\223\302~\373\223\302\246\005\224\302\211\002\224\302\354\376\223\302.\361\223\302\371\374\223\302F\374\223\302\031\361\223\302\025\360\223\302\310\360\223\302\373\373\223\302\253\366\223\302}\320\223\302$\373\223\302\220\002\224\302\305\367\223\302*\001\224\302\365\370\223\302\226\365\223\302`\354\223\302\017\370\223\302\264\215\223\302\\\002\224\302\377\003\224\302\362\374\223\302\261\357\223\302\t\367\223\302\214\365\223\302\231\354\223\302+\355\223\302:\351\223\302\274\373\223\302\244\363\223\302\255\363\223\302\205\350\223\302o\377\223\302\200\347\223\302\341\361\223\302\037\344\223\302\300\345\223\302~\354\223\302R\003\224\302\223\347\223\302F\001\224\302\213\376\223\302\212\357\223\302\322\370\223\3029\353\223\302\336\366\223\302u\353\223\302`\351\223\302%\003\224\302 \377\223\302\223\332\223\302\035\007\224\302_\370\223\302[\370\223\3021\365\223\302\311\365\223\302\201\364\223\302\017\357\223\302M\373\223\302\370\344\223\302\031\005\224\302j\365\223\302\230\370\223\302\245\362\223\302g\376\223\302\271\350\223\302\021\352\223\302\341\367\223\302:\367\223\302\370\355\223\302\346\347\223\302\022\355\223\302C\371\223\302=\357\223\3026\372\223\302A\373\223\302\231\351\223\3022\002\224\302\253\346\223\3028\363\223\302\272\001\224\302\303\351\223\302\r\371\223\302|\365\223\302\035\000\224\302l\372\223\302J\373\223\302\253\000\224\302\'\366\223\302{\347\223\302X\360\223\302\177\353\223\302\341\372\223\302L\361\223\302\362\352\223\302\352\375\223\3027\370\223\302;\367\223\302z\352\223\302\333\357\223\302+\224\223\302\256\372\223\302,\363\223\302d\371\223\302<\004\224\302\204\367\223\302\236\352\223\302\247\360\223\302\344\363\223\302\350\002\224\302M\374\223\3028\000\224\302P\360\223\302]\341\223\302\340\363\223\302Y\373\223\302\n\364\223\302\224\354\223\302u\366\223\302\245\376\223\302\020\353\223\302g\345\223\302\343\353\223\302\352\371\223\302\021\362\223\302-\346\223\302K\350\223\302>\377\223\302\264\361\223\302g\326\223\302\226\366\223\302Q\365\223\302U\374\223\302,\361\223\302h\007\224\302\266\354\223\302\274\344\223\302C\371\223\302\261\366\223\302\007\007\224\302\206\366\223\302\\\001\224\302\343\372\223\3020\357\223\302+\365\223\302\007\361\223\302\207\362\223\302\017\364\223\302b\373\223\302\311\373\223\302\377\370\223\302\272\370\223\302\251\362\223\302L\340\223\302\245\365\223\302\374\360\223\302\247\345\223\302\332\354\223\302`\353\223\302!\377\223\302\304\333\223\302\316\373\223\302\035\352\223\302\365\000\224\302\256\361\223\3026\373\223\302\226\353\223\302u\351\223\302m\360\223\302\005\004\224\302\321\362\223\302$\003\224\302\225\372\223\302\202\372\223\302V\367\223\302s\002\224\302\333\366\223\302\n\372\223\302\341\000\224\302\374\367\223\302\305\366\223\302\207\375\223\302T\005\224\302\366\363\223\302\201\346\223\302\234\355\223\302\'\372\223\302\n\370\223\302\244\357\223\302\256\376\223\302\371\362\223\302x\004\224\302Z\374\223\302\353\362\223\302\301\366\223\302\215\372\223\302?\360\223\302\377\353\223\302\355\372\223\3026\217\223\302\360\360\223\302<\365\223\302E\003\224\302\266\355\223\302S\355\223\302\362\366\223\302\030\300\223\302\000\367\223\302\215\371\223\302\317\375\223\302\017\322\223\302\330\334\223\302\232\370\223\302g\372\223\302\364\003\224\302A\361\223\302\026\374\223\302B\357\223\302\254\373\223\302d\351\223\302=\362\223\302\243\362\223\302\036\004\224\302\205\370\223\302\320\000\224\302`\355\223\302\252\363\223\302\257\363\223\302\357\371\223\302\317\356\223\302\373\350\223\302n\372\223\302\246\361\223\302\245\365\223\302\253\006\224\302\301\271\223\302\222\372\223\302\223\365\223\302\325\366\223\302T\350\223\302\001\344\223\302\r\371\223\302i\220\223\302\354\337\223\302\367\345\223\302\243\374\223\302\204\363\223\302;\361\223\302\002\365\223\302\'\003\224\302\010\001\224\302X\365\223\302\203\371\223\302\032\351\223\302C\010\224\302\322\360\223\302f\374\223\302\363\354\223\302h\366\223\302\270\361\223\302\231\003\224\302\026\373\223\302T\000\224\302\352\001\224\302R\372\223\302Z\375\223\302\n\353\223\302E\353\223\302\t\367\223\302Z\365\223\302\320\360\223\302\007\004\224\302z\375\223\302\006\370\223\302\207\366\223\302\341\364\223\302\305\366\223\302\234\373\223\302~\362\223\302E\351\223\302\251\002\224\302e\371\223\302\301\271\223\302\307\367\223\302\036\366\223\302\361\002\224\302?\341\223\302N\372\223\302V\363\223\302Z\375\223\302\t\317\223\302o\371\223\302\364\373\223\302\267\215\223\302\331\372\223\302\245\351\223\302\220\370\223\302\333\361\223\302l\371\223\302\246\367\223\302\361\351\223\302\312\362\223\302\352\007\224\302\023\341\223\302x\220\223\302[\370\223\302\264\365\223\302\206\370\223\302\007\000\224\302?\355\223\302\245\003\224\302\247\344\223\302n\371\223\302)\000\224\302z\374\223\302\200\350\223\302\363\346\223\302\255\224\223\302\242\376\223\302R\367\223\3021\002\224\302f\347\223\302k\374\223\302b\346\223\302\\\374\223\302u\370\223\302\013\377\223\302\237\377\223\302a\374\223\302:\373\223\3021\371\223\302\363\350\223\302\360\365\223\302\260\374\223\302\375\370\223\302\260\003\224\302\022\361\223\302\327\271\223\302A\367\223\302\275\372\223\302\340\362\223\302\356\364\223\3026\374\223\302\255\367\223\302\266\350\223\302\004\353\223\3020\366\223\302\326\353\223\302\352\371\223\302\027\354\223\3026\351\223\302%\367\223\302\224\373\223\302\304\350\223\302\222\372\223\302<\352\223\302\344\376\223\302\217\353\223\302x\356\223\302\246\370\223\302\200\374\223\302\031\370\223\302\221\350\223\302m\010\224\302K\354\223\302/\357\223\302Z\003\224\302z\004\224\302!\367\223\302c\375\223\302\326\366\223\302\n\350\223\302\250\370\223\3024\370\223\302\356\351\223\302Q\351\223\302T\360\223\302\301\362\223\302x\360\223\302\302\005\224\302\325\367\223\302\326\377\223\302#\370\223\302\316\367\223\302\347\002\224\302~\356\223\302X\365\223\302\267\360\223\302\306\373\223\302\370\374\223\302Z\000\224\302\206\356\223\302\016\350\223\302\321\004\224\302C\365\223\302\201\353\223\302\363\366\223\302\226\372\223\302\327\347\223\302\224\362\223\302\210\355\223\302\351\373\223\302!\370\223\302^\355\223\302\027\372\223\302\363\000\224\302I\374\223\302p\354\223\302~\372\223\302\325\371\223\302\334\275\223\302\016\373\223\302k\351\223\302\242\350\223\302\234\365\223\302~\371\223\302\260\367\223\302s\360\223\302\240\376\223\302I\000\224\302\217\367\223\302Q\370\223\302:\363\223\302\363\003\224\302\210\223\223\302J\346\223\302\211\366\223\302]\002\224\302\322\373\223\302V\371\223\302\257\367\223\302R\365\223\302\353\375\223\302\264\374\223\302\210\365\223\302\370\275\223\302W\340\223\3024\370\223\302\356\354\223\302\211\371\223\302\367\365\223\302\342\215\223\302\241\360\223\302\007\367\223\302\026\367\223\302\307\006\224\302}\374\223\302#\352\223\302\240\364\223\302\334\003\224\302/\000\224\302\331\342\223\302e\350\223\302\244\375\223\302\222\000\224\302\213\371\223\302\027\376\223\3029\367\223\302\334\357\223\302\341\355\223\302K\363\223\302;\371\223\302B\364\223\302w\365\223\302)\300\223\302\225\347\223\302\264\337\223\302\354\321\223\302A\010\224\302\372\366\223\302\261\377\223\302\236\373\223\302e\364\223\302!\005\224\302\275\353\223\302\364\357\223\302\250\376\223\302&\367\223\302\024\370\223\302\320\350\223\302\313\357\223\302>\001\224\302\001\224\223\302?\346\223\302\016\374\223\302\370\003\224\302\227\373\223\302\235\360\223\302\257\361\223\302\177\352\223\302\037\366\223\302.\362\223\302\204\373\223\3021\357\223\302^\004\224\302\023\372\223\3028\363\223\302<\376\223\302\352\364\223\302\215\373\223\302\265\366\223\302\335\372\223\3028\001\224\302e\375\223\302\013\326\223\302\261\005\224\302\322\372\223\302%\003\224\302\204\361\223\302b\001\224\302\233\366\223\302\334\347\223\302\347\367\223\302\036\375\223\302\201\374\223\302\300\376\223\302\026\370\223\302b\370\223\302I\376\223\302\222\346\223\302\266\332\223\302\264\356\223\302d\371\223\302\312\365\223\302Y\220\223\302F\002\224\302\222\276\223\302R\001\224\302\312\277\223\302\024\221\223\302\347\360\223\302\372\370\223\302i\361\223\302z\001\224\302\303\366\223\302\034\342\223\302\230\361\223\302S\373\223\302m\003\224\302\337\373\223\302@\371\223\302\315\353\223\302\364\370\223\302\007\365\223\302\316\371\223\302-\365\223\302\230\364\223\302\006\367\223\302v\367\223\302\242\357\223\302\306\366\223\302\314\365\223\302\354\356\223\302\305\347\223\302\265\366\223\302Z\372\223\302\306\373\223\302\256\003\224\302=\366\223\302\330\354\223\3022\363\223\302\271\365\223\302\t\361\223\302\215\371\223\302\253\001\224\302\010\372\223\302\323\371\223\302\224\364\223\302\177\370\223\302\345\361\223\302\372\356\223\302\305\373\223\302\206\371\223\302\037\372\223\302y\364\223\302D\367\223\302O\003\224\302G\365\223\302\003\375\223\302\304\374\223\302\340\002\224\302\250\370\223\302\223\371\223\302\346\375\223\302\364\275\223\302t\373\223\302)\351\223\302\021\363\223\302\254\006\224\302H\373\223\302\323\346\223\302\327\373\223\302\\\365\223\302\033\010\224\302\371\355\223\302i\372\223\302\222\371\223\302\366\002\224\302\271\362\223\302T\365\223\302\350\363\223\3027\003\224\302f\364\223\302\354\371\223\3023\353\223\302\337\371\223\302@\002\224\302\302\367\223\302Z\360\223\302Q\357\223\302<\367\223\302\000\004\224\302\250\345\223\302\347\363\223\302\362\351\223\302@\372\223\302\331\360\223\302W\360\223\302;\362\223\302\303\370\223\302\347\353\223\302\027\351\223\302\323\271\223\302K\362\223\302\303\372\223\302z\353\223\302\360\346\223\302G\351\223\3024\372\223\302\004\375\223\302\305\373\223\302\364\376\223\302\245\370\223\302C\372\223\302\n\357\223\302\301\374\223\302l\370\223\302,\372\223\302X\372\223\302\350\371\223\302P\373\223\302\331\361\223\302E\373\223\302M\372\223\302\301\354\223\302\341\370\223\302C\372\223\302\247\343\223\302\303\351\223\302\302\000\224\302\232\373\223\302\271\370\223\302\t\365\223\302L\365\223\302q\373\223\302G\372\223\302\225\364\223\302\205\004\224\302\223\351\223\302\325\375\223\302\250\341\223\302\337\350\223\302\253\366\223\302\026\375\223\302\265\356\223\302\357\374\223\302\367\350\223\302\355\002\224\302#\374\223\3027\351\223\302\323\000\224\302\013\367\223\302q\004\224\302\200\370\223\302/\363\223\302\246\006\224\302N\350\223\302\004\360\223\302S\375\223\302\236\374\223\302i\364\223\302\347\365\223\302(\354\223\302\342\363\223\302\311\365\223\302\265\003\224\302\225\347\223\302\007\001\224\302\260\375\223\302\304\362\223\302\211\374\223\3025\374\223\302\265\364\223\302?\367\223\302i\361\223\302l\374\223\302v\370\223\302\003\365\223\302*\263\223\302\002\361\223\302\324\377\223\302\346\375\223\302\231\371\223\302\337\371\223\3028\374\223\302\335\002\224\302\034\000\224\302\323\366\223\302E\377\223\302\030\363\223\302\341\371\223\302\256\364\223\3026\367\223\302X\347\223\302\261\001\224\302f\362\223\302\330\367\223\302o\366\223\302\023\000\224\302\007\362\223\302\270\364\223\302\374\371\223\302N\352\223\302\263\371\223\302\363\370\223\302\r\377\223\302\205\367\223\302\353\365\223\3024\374\223\302f\004\224\302K\371\223\302\355\373\223\302+\373\223\302t\364\223\302\345\005\224\302\354\005\224\302\247\365\223\302C\363\223\302L\375\223\302#\371\223\302F\007\224\302|\366\223\302#\272\223\302\311\371\223\302?\272\223\302\373\374\223\302V\005\224\302\017\365\223\302\245\346\223\302\220\354\223\3021\357\223\302R\370\223\302\355\365\223\302\247\375\223\302\346\356\223\302\005\365\223\302\203\371\223\302/\370\223\302\333\357\223\302\213\340\223\302 \363\223\3021\364\223\302,\366\223\302T\007\224\302\267\364\223\302\304\370\223\302\264\365\223\302\207\344\223\302W\336\223\302\217\361\223\302\223\003\224\302\031\000\224\302\363\367\223\302l\360\223\302\211\364\223\302X\370\223\302\374\351\223\302_\006\224\302(\357\223\302\245\366\223\302y\362\223\302v\364\223\302b\353\223\302\254\361\223\302\215\355\223\302\274\356\223\302\224\001\224\302\n\371\223\302\275\373\223\302\313\366\223\302\373\374\223\3023\366\223\302\252\002\224\3025\375\223\302\341\372\223\302\031\372\223\302\262\371\223\302\304\362\223\302\006\356\223\302]\366\223\302\037\005\224\302K\376\223\302\272\351\223\302\270\353\223\302\017\357\223\302y\362\223\302\336\002\224\302\310\355\223\302N\361\223\302?\365\223\302\033\002\224\302\327\360\223\302\252\372\223\302\035\351\223\302\224\362\223\302p\357\223\302\341\276\223\302\325\355\223\302-\351\223\302\261\330\223\302N\351\223\302\352\367\223\302F\367\223\302\312\374\223\302:\370\223\302\207\347\223\302\267\002\224\302~\373\223\302\245\372\223\302\034\372\223\3027\360\223\302\200\374\223\302\007\373\223\302\201\360\223\302E\350\223\302#\002\224\302e\356\223\302\325\351\223\302\021\346\223\302g\366\223\302\252\367\223\302\324\365\223\302\265\000\224\302\002\353\223\302I\003\224\302f\004\224\302\021\363\223\302~\357\223\302G\350\223\302g\372\223\302\007\002\224\302\233\000\224\302\200\363\223\302\232\375\223\302n\367\223\302\256\215\223\302R\371\223\302\303\371\223\302%\372\223\302\035\363\223\302\324\366\223\302\016\377\223\302U\365\223\302c\374\223\302x\351\223\302p\372\223\302\317\374\223\302}\341\223\302F\351\223\302\233\360\223\3027\374\223\302\365\355\223\302\217\362\223\302u\004\224\302\231\367\223\302\300\370\223\302\247\366\223\302B\272\223\302\347\364\223\302K\373\223\302\265\007\224\302\004\361\223\302\033\371\223\302\007\347\223\302\305\345\223\302\350\002\224\302l\353\223\302\270\366\223\302\207\367\223\302\n\367\223\302\262\362\223\302\256\377\223\302\216\366\223\302}\364\223\302\312\374\223\302\315\370\223\302\023\357\223\302\353\354\223\302\320\353\223\302:\360\223\302\276\357\223\302?\366\223\302\310\366\223\302\262\377\223\302\007\350\223\302Y\356\223\302\304\372\223\302\347\000\224\302v\366\223\302\253\343\223\302\360\362\223\302S\375\223\302q\371\223\302~\365\223\302 \366\223\302\037\355\223\302\t\001\224\302\241\003\224\302\326\372\223\3028\374\223\302\244\366\223\302\345\362\223\302\346\366\223\302\213\367\223\302\023\366\223\302\331\345\223\302\000\345\223\302\213\372\223\302\027\001\224\302u\350\223\302+\373\223\302\302\346\223\302T\364\223\302[\001\224\302Q\332\223\302\251\376\223\302\314\371\223\302C\352\223\302X\364\223\302K\366\223\302O\000\224\302\'\352\223\302\330\364\223\302\226\362\223\302\300\365\223\302\330\354\223\3028\005\224\302\371\374\223\302\355\370\223\302\215\372\223\302\037\367\223\302\250\372\223\302\366\366\223\302\245\362\223\302\305\362\223\302\233\352\223\302\031\001\224\302\234\363\223\302o\365\223\302\331\350\223\302\020\371\223\302\217\374\223\302\355\371\223\302\240\366\223\302V\364\223\302]\366\223\302\224\367\223\302\310\003\224\302S\367\223\302\036\360\223\302\267\373\223\302\334\372\223\302\324\365\223\302q\224\223\302D\361\223\302 \376\223\302x\363\223\302\030\374\223\302\230\310\223\302U\372\223\302\233\352\223\302\235\351\223\302\320\347\223\302\201\377\223\302/\001\224\302,\365\223\302\320\350\223\3024\366\223\302\177\360\223\302T\356\223\3020\344\223\302\260\366\223\302\273\347\223\302w\375\223\302\376\001\224\302K\004\224\302\350\364\223\302\320\000\224\302V\352\223\302\373\367\223\302.\366\223\302K\342\223\302f\370\223\302\224\363\223\302\304\373\223\302/\352\223\302\035\221\223\302\301\001\224\302\302\370\223\302\317\367\223\302\265\363\223\302\375\375\223\302d\005\224\302\375\367\223\302X\371\223\302\202\362\223\302\310\370\223\302\242\355\223\302s\003\224\302\346\374\223\302\023\370\223\302\027\371\223\302n\373\223\3026\371\223\302\000\350\223\302_\351\223\302\005\300\223\302\256\370\223\302\332\377\223\302\213\372\223\302<\367\223\302\262\347\223\302\365\370\223\302M\370\223\302G\364\223\302\214\376\223\302\230\345\223\302\024\365\223\302)\365\223\302\021\354\223\302\315\374\223\302\265\347\223\302\304\361\223\302\200\362\223\302\211\373\223\302&\371\223\302Q\373\223\302(\363\223\302:\226\223\302h\352\223\302`\364\223\302T\366\223\302\375\371\223\302\200\352\223\302\"\367\223\302\375\003\224\302\017\344\223\302\037\351\223\302\370\352\223\302\235\370\223\302\320\275\223\302S\326\223\302\233\001\224\302\211\365\223\302(\354\223\302\335\356\223\302\007\002\224\302\210\366\223\302\264\374\223\302\362\371\223\302\214\007\224\302k\355\223\302(\375\223\302\243\373\223\302\330\377\223\302V\377\223\302$\373\223\302\235\361\223\302\213\370\223\302\266\364\223\302g\345\223\302\373\356\223\302\306\361\223\302r\372\223\302\364\367\223\302\251\363\223\302\204\343\223\302\027\003\224\302;\355\223\302\361\360\223\302\362\373\223\302\004\356\223\302`\376\223\302\370\343\223\302\376\366\223\302\350\355\223\302\304\277\223\302\253\361\223\302\222\373\223\302\277\376\223\302\273\360\223\302\277\366\223\302\001\357\223\302\204\371\223\302\307\370\223\302\266\367\223\302\322\350\223\302\t\376\223\302)\366\223\302}\367\223\302\221\364\223\302\007\002\224\302\345\374\223\302\215\364\223\302j\351\223\3029\367\223\302K\001\224\302-\377\223\302u\375\223\302\177\371\223\302\314\366\223\302\001\372\223\302\266\356\223\302\251\347\223\302:\371\223\302q\372\223\302\307\355\223\302\361\364\223\302\355\364\223\302\247\356\223\302\336\367\223\302\204\377\223\302t\367\223\302\217\354\223\302\327\361\223\302\260\003\224\302\225\367\223\302\307\353\223\302\362\373\223\302y\372\223\302\270\366\223\302\034\352\223\302\002\350\223\302\274\271\223\302\207\364\223\302\304\277\223\302Y\376\223\302\t\366\223\302S\353\223\302D\370\223\302[\367\223\302]\353\223\302\322\366\223\302\014\000\224\302\321\362\223\302\227\366\223\302m\356\223\302 \345\223\3024\221\223\302T\347\223\302\262\355\223\302j\001\224\302\231\372\223\302\035\364\223\302\311\370\223\302_\350\223\302\r\004\224\302\262\020\223\302M\366\223\302>\344\223\302\327\367\223\302#\001\224\302\323\350\223\302\006\352\223\302\356\363\223\302\313\000\224\302\016\374\223\302\224\356\223\302\373\365\223\302\223\374\223\302N\370\223\302\315\366\223\302\260\377\223\302K\002\224\302\311\374\223\302\006\004\224\302&\376\223\302G\003\224\302\255\370\223\302\361\003\224\302\335\366\223\302\240\350\223\302v\370\223\302\227\371\223\302s\350\223\302\322\371\223\302\200\007\224\302\262\374\223\302\370\361\223\302T\370\223\302Z\365\223\302z\365\223\302\005\370\223\302\350\372\223\302\355\365\223\302\001\365\223\302-\357\223\302.\221\223\302P\000\224\302\371\347\223\302\355\363\223\302Y\357\223\302\306\375\223\302\375\372\223\302\022\356\223\302\232\370\223\302\000\361\223\302X\373\223\302\313\370\223\302\214\374\223\302H\371\223\302\342\354\223\302\331\347\223\302\n\356\223\302\200\004\224\302v\351\223\302\n\353\223\302\334\002\224\302b\363\223\302g\376\223\302\225\362\223\302\001\370\223\302s\355\223\302u\353\223\302\215\361\223\302\364\374\223\302\342\354\223\302x\363\223\302\302\366\223\302\220\273\223\302Y\363\223\302x\362\223\302o\362\223\302F\360\223\302g\377\223\302\373\355\223\302\301\371\223\302\310\355\223\302\243\003\224\302\314\357\223\302\330\352\223\302\213\356\223\302t\375\223\3023\367\223\302\230\361\223\302\201\353\223\302\355\363\223\302X\372\223\302e\373\223\302N\370\223\302i\367\223\302z\340\223\302\000\000\224\302%\010\224\302\231\344\223\302\030\351\223\302\313\000\224\302\277\352\223\302\351\375\223\302\034\373\223\302\200\351\223\302\010\375\223\302\222\373\223\302\014\365\223\302\336\002\224\302A\370\223\302\254\002\224\302\235\002\224\302\202\355\223\302\t\364\223\302\312\372\223\302\301\351\223\302w\367\223\3027\350\223\302\316\372\223\3028\373\223\3027\375\223\302\022\352\223\302\273\003\224\302\270\370\223\302\006\005\224\3028\371\223\302\224\361\223\302\220\364\223\302\023\377\223\302f\002\224\302s\357\223\302\303\271\223\302\337\373\223\302\261\343\223\3020\355\223\302\312\365\223\302(\373\223\302G\350\223\302\265\375\223\302\351\003\224\302\353\357\223\302\267\003\224\302\361\003\224\302\242\360\223\302\265\365\223\302\001\375\223\302c\364\223\302\371\356\223\302\262\007\224\302\360\346\223\302\016\363\223\302\316\363\223\302\t\373\223\302\226\361\223\302a\371\223\302j\003\224\302\023\370\223\302\217\362\223\302\302\001\224\302\364\351\223\302\000\365\223\302!\007\224\302f\351\223\302\214\003\224\302W\344\223\302\036\376\223\302\'\371\223\302\343\361\223\302\307\364\223\302\371\375\223\302\204\365\223\302\266\223\223\302\334\366\223\302\300\006\224\302M\365\223\302&\346\223\302=\362\223\3025\000\224\302\372\350\223\302\020\004\224\302\356\375\223\302\272\367\223\302\032\002\224\302\354\371\223\302\201\373\223\3023\373\223\302\337\361\223\302v\350\223\302\254\377\223\3022\350\223\302\254\343\223\302v\362\223\302\n\357\223\3027\366\223\302 \366\223\302:\005\224\302\\\350\223\302I\364\223\302\254\370\223\302\377\367\223\302\347\352\223\302\366\222\223\302Y\364\223\302\277\362\223\302\353\366\223\302z\371\223\302e\351\223\302o\373\223\302u\375\223\302\016\006\224\302C\363\223\302\321\375\223\302\242\372\223\302{\371\223\302\355\271\223\302u\001\224\302\341\275\223\302x\004\224\302\321\346\223\302\317\364\223\302\345\370\223\302\234\350\223\302\372\361\223\302\304\371\223\302\325\357\223\302\277\367\223\302\306\326\223\302\366\371\223\302\365\366\223\3027\372\223\302\002\374\223\302r\001\224\302\243\367\223\302\257\372\223\302\272\352\223\302\006\000\224\302[\377\223\302\035\371\223\302W\364\223\302\261\373\223\302\036\335\223\302\333\372\223\302\273\364\223\302\327\366\223\3024\000\224\302M\374\223\302\235\364\223\302\373\337\223\302\227\361\223\302\350\364\223\302\343\370\223\302\244\377\223\302\232\371\223\302\253\002\224\302%\374\223\302)\371\223\302Z\363\223\302\262\373\223\302\232\363\223\302\361\371\223\302\344\357\223\302\n\353\223\302D\366\223\302\236\362\223\302M\376\223\302\311\356\223\302\304\373\223\302\000\277\223\302S\352\223\302\364\366\223\302\245\353\223\302;\347\223\302m\350\223\3027\367\223\302a\373\223\302\255\220\223\302\237\001\224\302n\370\223\302\270\350\223\302\242\356\223\302\221\356\223\302\372\370\223\302X\377\223\302`\366\223\302p\361\223\302\240\350\223\302\006\352\223\302R\357\223\302\325\372\223\302\352\365\223\302\367\370\223\302J\005\224\302\256\377\223\302\307\001\224\302\266\347\223\302\305\356\223\302\037\367\223\302\342\352\223\302\251\271\223\302C\374\223\302\211\370\223\302-\350\223\302\263\357\223\302\266\366\223\3028\004\224\3027\376\223\302\'\372\223\302\254\365\223\3023\361\223\302\360\366\223\302{\375\223\302\027\351\223\302i\371\223\302\241\351\223\302R\002\224\302\301\367\223\302%\006\224\302\356\377\223\302\023\353\223\302b\370\223\302\260\353\223\302\013\001\224\302\354\361\223\302L\355\223\302\236\343\223\302\031\363\223\302\213\357\223\302\372\374\223\302<\372\223\302\220\350\223\302{\371\223\302>\352\223\302\r\373\223\302\342\365\223\302\025\367\223\302R\002\224\302\262\351\223\302C\362\223\302\245\354\223\302\327\275\223\302D\372\223\302g\365\223\302\365\367\223\302\236\006\224\302\005\360\223\302\252\001\224\302}\366\223\302\345\364\223\302\354\366\223\302\234\367\223\302[\221\223\302a\371\223\302\016\362\223\302\276\224\223\302\324\373\223\302\267\276\223\302\375\350\223\302}\003\224\302 \365\223\302\327\364\223\302F\357\223\3029\365\223\302\275\356\223\302\034\365\223\302\304\002\224\302\300\367\223\302q\354\223\302\305\373\223\302\003\373\223\302_\350\223\3026\370\223\302F\365\223\3024\374\223\302\000\350\223\302B\372\223\302\211\362\223\302\032\000\224\302\320\371\223\302l\350\223\302\342\371\223\302\274\354\223\302\301\373\223\302\350\006\224\302\004\375\223\302M\367\223\3020\364\223\302\213\373\223\302V\344\223\302\301\374\223\302\233\372\223\302\365\377\223\302c\001\224\302\222\342\223\302\262\366\223\302M\356\223\302~\352\223\302\264\377\223\302\n\373\223\302\267\343\223\302B\366\223\302\'\363\223\302\347\351\223\302\241\372\223\302^\371\223\302,\375\223\302\266\364\223\302w\224\223\302\341\365\223\302y\351\223\302\270\370\223\302\221\361\223\302\250\367\223\302\306\357\223\302\250\370\223\302\357\374\223\302\014\375\223\302&\003\224\302\265\331\223\302\217\002\224\302.\345\223\302L\367\223\302\255\367\223\302|\371\223\302k\370\223\3024\353\223\302\255\356\223\3025\356\223\302\222\004\224\302\005\361\223\3021\366\223\302\213\371\223\302\026\354\223\302v\373\223\302-\367\223\302\242\372\223\302\204\346\223\302\311\371\223\302\252\372\223\302C\371\223\302\361\352\223\302I\362\223\302\"\003\224\302@\377\223\302\311\377\223\302\177\003\224\302\003\370\223\302\303\363\223\302\340\367\223\302Q\376\223\302\263\006\224\302\002\371\223\302,\310\223\302\245\372\223\3020\363\223\302\017\350\223\3021\370\223\302\001\365\223\302b\001\224\302\353\374\223\302\301\357\223\302J\372\223\302\021\371\223\302\230\363\223\302\205\373\223\302\251\362\223\302\363\365\223\302\354\350\223\302\010\372\223\302\372\356\223\302/\372\223\302Y\350\223\302\342\357\223\302\300\353\223\302\340\353\223\302(\366\223\302z\351\223\302\267\346\223\302\242\370\223\302~\370\223\302\231\372\223\302\206\357\223\302\031\376\223\302\315\373\223\302\230\375\223\302\326\367\223\302\326\374\223\302\226\372\223\302\300\347\223\302\246\003\224\302\034\376\223\302f\375\223\302\355\001\224\302\216\363\223\302\356\277\223\302C\343\223\302z\362\223\302\361\376\223\302k\370\223\302I\360\223\302d\372\223\302Q\361\223\302\220\003\224\302\027\370\223\302\373\364\223\302(\004\224\302[\357\223\302i\352\223\302!\350\223\302l\372\223\302k\372\223\302c\372\223\302\000\350\223\302\344\350\223\302j\001\224\302\026\372\223\302z\357\223\302\223\356\223\302Z\375\223\302\226\371\223\302\036\001\224\302m\371\223\302\310\367\223\302\351\362\223\302\257\371\223\302\305\355\223\302\360\374\223\302\362\376\223\302\364\361\223\302\\\367\223\302\177\365\223\302\310\004\224\302\202\217\223\302\306\371\223\302o\373\223\302\337\372\223\302\243\340\223\302\267\375\223\302\224\373\223\302\215\376\223\302\271\333\223\302b\374\223\302\357\373\223\302\260\371\223\302\307\355\223\302\205\372\223\302s\367\223\302`\002\224\302\214\356\223\302\037\272\223\302]\364\223\302\242\364\223\302G\345\223\302Y\363\223\302\373\361\223\302\r\360\223\302\262\000\224\302f\351\223\302=\375\223\302\232\373\223\302\377\374\223\302\264\371\223\302\375\375\223\302\332\377\223\302%\360\223\302z\376\223\302\371\340\223\302\177\355\223\302\231\373\223\302\363\370\223\302]\367\223\302n\364\223\302R\352\223\302\305\376\223\3022\364\223\302\177\364\223\302\313\364\223\302\343\357\223\302y\365\223\302o\374\223\302\366\377\223\302\227\004\224\302\r\277\223\302\267\271\223\3021\362\223\302r\355\223\302\244\367\223\302U\370\223\302!\350\223\302j\351\223\302{\375\223\302-\352\223\302)\356\223\302\270\002\224\302U\355\223\302\322\374\223\302\\\000\224\302\n\367\223\302\214\375\223\302\200\375\223\302\266\271\223\302\361\366\223\302H\372\223\302\266\373\223\302y\374\223\302\242\376\223\302H\367\223\302.\371\223\302\003\374\223\302\356\365\223\302B\372\223\302\037\376\223\302[\370\223\302)\376\223\302\310\354\223\302\021\375\223\302\200\353\223\302H\004\224\302|\374\223\302\010\002\224\302\031\352\223\302\307\354\223\302V\370\223\302H\366\223\302P\372\223\302\200\363\223\302\"\347\223\302\004\373\223\302o\364\223\302\016\367\223\302\206\354\223\302\264\372\223\302\223\364\223\302\311\373\223\302V\007\224\302\010\363\223\302,\347\223\302\227\357\223\302\354\275\223\302\374\351\223\302\222\371\223\302\317\373\223\302\314\361\223\302r\365\223\302\035\362\223\302\371\001\224\302s\364\223\302c\367\223\302_\377\223\302m\370\223\302\303\354\223\302\313\354\223\302i\356\223\302\200\356\223\302\331\364\223\302[\351\223\302\265\364\223\302m\337\223\302\250\003\224\302\036\360\223\302\002\354\223\302\262\374\223\302\330\371\223\302y\357\223\302\375\003\224\302\026\365\223\302b\375\223\302\273\371\223\302\030\002\224\302\177\303\223\302\245\370\223\302\320\353\223\302U\372\223\302\252\352\223\302H\367\223\302#\332\223\302\'\376\223\302\264\003\224\302\270\376\223\302b\357\223\302O\272\223\302\321\372\223\302J\376\223\302\211\000\224\302s\002\224\302)\361\223\302\n\272\223\302\255\371\223\302\365\275\223\3020\370\223\302:\001\224\302p\364\223\302\214\003\224\302\242\373\223\302o\364\223\3021\370\223\3028\000\224\302\010\342\223\302\215\346\223\302\216\366\223\302\n\374\223\302\326\364\223\302\203\357\223\302\334\350\223\302O\362\223\302\375\357\223\302V\004\224\302\201\350\223\302[\363\223\302\242\375\223\302\277\003\224\3027\370\223\3025\010\224\302\346\005\224\302\005\365\223\302Y\377\223\302\335\350\223\302,\337\223\302\026\277\223\302!\364\223\302\324\366\223\302\230\220\223\302\230\367\223\302\313\361\223\302\001\353\223\302\307\366\223\302\267\372\223\302$\001\224\302C\346\223\302\371\350\223\302\303\220\223\302\262\357\223\302T\371\223\302r\372\223\302p\002\224\302\241\373\223\302t\224\223\302x\366\223\302\230\350\223\302/\376\223\302\202\352\223\302\255\355\223\302\004\366\223\302w\373\223\302\244\370\223\302!\366\223\302\325\367\223\302\335\366\223\302\350\362\223\302\327\363\223\302\347\367\223\302\301\355\223\302/\006\224\302\210\350\223\302\275\000\224\302k\357\223\302\257\366\223\302,\366\223\302\253\010\224\302\263\376\223\302^\364\223\302\212\354\223\302\315\375\223\302\354\366\223\302_\354\223\302\016\001\224\302\340\344\223\302\034\373\223\302Z\375\223\302\252\372\223\302H\370\223\302l\005\224\3024\367\223\302 \372\223\302\006\000\224\302&\363\223\302\217\362\223\302\324\361\223\302\266\372\223\302\376\345\223\302\313\375\223\302\242\367\223\302\200\003\224\302Y\353\223\302\277\366\223\302\215\367\223\302\007\004\224\302|\001\224\302\254\360\223\302\230\341\223\302\241\357\223\302S\356\223\302\341\371\223\302\035\003\224\302\210\350\223\302\371\374\223\302\343\373\223\302\004\351\223\302\321\001\224\302c\372\223\302\301\277\223\302\036\376\223\302\331\366\223\302\332\333\223\302\310\365\223\302\256\357\223\302\355\374\223\302&\001\224\302\002\351\223\302\223\370\223\302\212\353\223\302>\350\223\302\252\360\223\302$\365\223\302\221\374\223\302|\006\224\3020\375\223\302Y\373\223\302\246\361\223\302l\001\224\302}\350\223\302,\360\223\302\314\376\223\302\035\005\224\302O\370\223\302O\363\223\302\004\367\223\302\366\362\223\302 \350\223\302p\350\223\302\307\370\223\302J\351\223\302]\372\223\302\305\374\223\302\231\371\223\302d\372\223\302\222\377\223\302\335\367\223\302\373\377\223\302\021\370\223\302p\363\223\302 \374\223\302O\351\223\302\257\004\224\302\253\365\223\302\355\351\223\302p\001\224\302\205\346\223\302x\363\223\302b\347\223\302\307\350\223\302\010\362\223\302\006\357\223\302h\377\223\302B\362\223\302\254\352\223\302\207\373\223\302\017\376\223\302\362\362\223\302Q\366\223\302\243\366\223\302?\374\223\3021\373\223\3024\360\223\302\357\365\223\302\352\376\223\3023\364\223\302\350\376\223\302\202\354\223\302\322\357\223\302\215\373\223\302\322\372\223\302\351\373\223\302\351\373\223\302\206\373\223\302\265\356\223\302\302\372\223\302\210\357\223\302\227\374\223\3026\010\224\302\236\371\223\302\223\010\224\302c\351\223\302*\375\223\302\262\373\223\302\343\367\223\302\007\354\223\302\250\371\223\302\217\374\223\302\215\371\223\302\351\347\223\302\"\373\223\302\333\375\223\302\330\362\223\302\'\370\223\302\250\357\223\302\241\224\223\302t\361\223\302\336\372\223\302\310\355\223\302[\373\223\302\306\362\223\302]\004\224\302\032\005\224\302i\346\223\302\363\371\223\302\215\371\223\302\272\371\223\3028\370\223\302\016\351\223\302<\376\223\3024\005\224\302R\367\223\302\360\364\223\302\317\375\223\302\330\277\223\302\027\372\223\302.\364\223\302\266\373\223\302P\373\223\302\237\375\223\302\306\364\223\302\023\373\223\3024\370\223\302%\371\223\302,\367\223\302\240\373\223\302\251\375\223\302H\345\223\302\346\357\223\302\300\000\224\3023\004\224\302X\362\223\302\231\365\223\302\216\376\223\302\031\353\223\302\352\372\223\302\354\000\224\302C\335\223\302\233\335\223\302t\377\223\302!\272\223\302\366\350\223\302\353\000\224\302\324\366\223\302\344\365\223\302\250\356\223\302S\347\223\302l\005\224\302\335\223\223\302\237\357\223\302\203\350\223\302*\366\223\302H\365\223\302h\360\223\302\345\366\223\302S\350\223\302\203\372\223\302\253\001\224\302J\350\223\302g\373\223\302x\346\223\302\031\375\223\302\370\365\223\302\036\007\224\302\225\372\223\302\021\353\223\302\261\361\223\302;\364\223\302\264\005\224\302\030\361\223\302m\365\223\302\273\344\223\302U\366\223\302H\373\223\302\224\344\223\302\007\356\223\302\330\377\223\302W\371\223\302 